{
  "version": "1.0",
  "truncation": null,
  "padding": null,
  "added_tokens": [
    {
      "id": 0,
      "content": "[PAD]",
      "single_word": false,
      "lstrip": false,
      "rstrip": false,
      "normalized": false,
      "special": true
    },
    {
      "id": 1,
      "content": "[UNK]",
      "single_word": false,
      "lstrip": false,
      "rstrip": false,
      "normalized": false,
      "special": true
    },
    {
      "id": 2,
      "content": "[CLS]",
      "single_word": false,
      "lstrip": false,
      "rstrip": false,
      "normalized": false,
      "special": true
    },
    {
      "id": 3,
      "content": "[SEP]",
      "single_word": false,
      "lstrip": false,
      "rstrip": false,
      "normalized": false,
      "special": true
    },
    {
      "id": 4,
      "content": "[MASK]",
      "single_word": false,
      "lstrip": false,
      "rstrip": false,
      "normalized": false,
      "special": true
    }
  ],
  "normalizer": {
    "type": "BertNormalizer",
    "clean_text": true,
    "handle_chinese_chars": true,
    "strip_accents": null,
    "lowercase": true
  },
  "pre_tokenizer": {
    "type": "BertPreTokenizer"
  },
  "post_processor": {
    "type": "TemplateProcessing",
    "single": [
      {
        "SpecialToken": {
          "id": "[CLS]",
          "type_id": 0
        }
      },
      {
        "Sequence": {
          "id": "A",
          "type_id": 0
        }
      },
      {
        "SpecialToken": {
          "id": "[SEP]",
          "type_id": 0
        }
      }
    ],
    "pair": [
      {
        "SpecialToken": {
          "id": "[CLS]",
          "type_id": 0
        }
      },
      {
        "Sequence": {
          "id": "A",
          "type_id": 0
        }
      },
      {
        "SpecialToken": {
          "id": "[SEP]",
          "type_id": 0
        }
      },
      {
        "Sequence": {
          "id": "B",
          "type_id": 1
        }
      },
      {
        "SpecialToken": {
          "id": "[SEP]",
          "type_id": 1
        }
      }
    ],
    "special_tokens": {
      "[CLS]": {
        "id": "[CLS]",
        "ids": [
          2
        ],
        "tokens": [
          "[CLS]"
        ]
      },
      "[SEP]": {
        "id": "[SEP]",
        "ids": [
          3
        ],
        "tokens": [
          "[SEP]"
        ]
      }
    }
  },
  "decoder": {
    "type": "WordPiece",
    "prefix": "##",
    "cleanup": true
  },
  "model": {
    "type": "WordPiece",
    "unk_token": "[UNK]",
    "continuing_subword_prefix": "##",
    "max_input_chars_per_word": 100,
    "vocab": {
      "[PAD]": 0,
      "[UNK]": 1,
      "[CLS]": 2,
      "[SEP]": 3,
      "[MASK]": 4,
      "a": 5,
      "b": 6,
      "c": 7,
      "d": 8,
      "e": 9,
      "f": 10,
      "g": 11,
      "h": 12,
      "i": 13,
      "j": 14,
      "k": 15,
      "l": 16,
      "m": 17,
      "n": 18,
      "o": 19,
      "p": 20,
      "q": 21,
      "r": 22,
      "s": 23,
      "t": 24,
      "u": 25,
      "v": 26,
      "w": 27,
      "x": 28,
      "y": 29,
      "z": 30,
      "##e": 31,
      "##u": 32,
      "##p": 33,
      "##l": 34,
      "##n": 35,
      "##g": 36,
      "##o": 37,
      "##t": 38,
      "##a": 39,
      "##k": 40,
      "##w": 41,
      "##h": 42,
      "##i": 43,
      "##s": 44,
      "##d": 45,
      "##b": 46,
      "##y": 47,
      "##r": 48,
      "##v": 49,
      "##z": 50,
      "##m": 51,
      "##j": 52,
      "##c": 53,
      "##f": 54,
      "##q": 55,
      "##x": 56,
      "##eu": 57,
      "##an": 58,
      "##ak": 59,
      "##ng": 60,
      "##oe": 61,
      "##ang": 62,
      "##at": 63,
      "ny": 64,
      "##am": 65,
      "##ah": 66,
      "##on": 67,
      "##eh": 68,
      "geu": 69,
      "##oh": 70,
      "meu": 71,
      "##eue": 72,
      "##ar": 73,
      "##ab": 74,
      "ji": 75,
      "keu": 76,
      "##al": 77,
      "nyang": 78,
      "nyan": 79,
      "##en": 80,
      "##as": 81,
      "##ee": 82,
      "##euh": 83,
      "ka": 84,
      "si": 85,
      "##ong": 86,
      "teu": 87,
      "ng": 88,
      "##ek": 89,
      "bak": 90,
      "##roe": 91,
      "ac": 92,
      "ngon": 93,
      "##er": 94,
      "##in": 95,
      "##um": 96,
      "peu": 97,
      "la": 98,
      "##ai": 99,
      "aceh": 100,
      "##ul": 101,
      "na": 102,
      "##ay": 103,
      "##it": 104,
      "##et": 105,
      "han": 106,
      "##eng": 107,
      "##ot": 108,
      "##aj": 109,
      "##om": 110,
      "lam": 111,
      "##ok": 112,
      "##si": 113,
      "sab": 114,
      "##peu": 115,
      "##ad": 116,
      "le": 117,
      "##ur": 118,
      "##ih": 119,
      "th": 120,
      "##eun": 121,
      "##ny": 122,
      "##euk": 123,
      "ur": 124,
      "nak": 125,
      "##aw": 126,
      "hana": 127,
      "##ut": 128,
      "##ik": 129,
      "##and": 130,
      "nakeuh": 131,
      "##eueng": 132,
      "##em": 133,
      "##uk": 134,
      "seu": 135,
      "##amp": 136,
      "##ap": 137,
      "##up": 138,
      "##eung": 139,
      "##im": 140,
      "nyoe": 141,
      "##ant": 142,
      "ureueng": 143,
      "##ag": 144,
      "at": 145,
      "an": 146,
      "saboh": 147,
      "##eut": 148,
      "##un": 149,
      "pr": 150,
      "that": 151,
      "##us": 152,
      "##il": 153,
      "##ib": 154,
      "##euet": 155,
      "##op": 156,
      "##eum": 157,
      "##ud": 158,
      "##ub": 159,
      "in": 160,
      "##angg": 161,
      "al": 162,
      "##ir": 163,
      "##any": 164,
      "jih": 165,
      "lag": 166,
      "teum": 167,
      "aw": 168,
      "##nyan": 169,
      "meun": 170,
      "##ung": 171,
      "geupeu": 172,
      "##eueh": 173,
      "##jak": 174,
      "##is": 175,
      "geut": 176,
      "##gah": 177,
      "kh": 178,
      "gamp": 179,
      "##ing": 180,
      "##eub": 181,
      "##ob": 182,
      "##ara": 183,
      "##lah": 184,
      "##el": 185,
      "tr": 186,
      "##id": 187,
      "lon": 188,
      "aneuk": 189,
      "##jih": 190,
      "##awa": 191,
      "tu": 192,
      "##ra": 193,
      "##ju": 194,
      "##ep": 195,
      "##euen": 196,
      "##or": 197,
      "droe": 198,
      "nangg": 199,
      "ray": 200,
      "awak": 201,
      "lom": 202,
      "ab": 203,
      "##ol": 204,
      "##asa": 205,
      "nanggroe": 206,
      "lh": 207,
      "bar": 208,
      "##sa": 209,
      "ul": 210,
      "##aja": 211,
      "##oen": 212,
      "ban": 213,
      "##ue": 214,
      "teung": 215,
      "nj": 216,
      "wat": 217,
      "##eul": 218,
      "##asi": 219,
      "##ri": 220,
      "nib": 221,
      "nibak": 222,
      "band": 223,
      "jeuet": 224,
      "kab": 225,
      "gob": 226,
      "neu": 227,
      "teuma": 228,
      "pih": 229,
      "##upat": 230,
      "##ac": 231,
      "##ama": 232,
      "lagee": 233,
      "cit": 234,
      "as": 235,
      "bek": 236,
      "##atan": 237,
      "watee": 238,
      "##ata": 239,
      "uroe": 240,
      "kabupat": 241,
      "kabupaten": 242,
      "sy": 243,
      "gampong": 244,
      "boh": 245,
      "##sia": 246,
      "meunan": 247,
      "##droe": 248,
      "jak": 249,
      "##uw": 250,
      "mant": 251,
      "##eb": 252,
      "ta": 253,
      "##oeng": 254,
      "##kh": 255,
      "laen": 256,
      "##es": 257,
      "##ueng": 258,
      "##ku": 259,
      "atawa": 260,
      "##ia": 261,
      "laju": 262,
      "##eur": 263,
      "##uet": 264,
      "##int": 265,
      "ind": 266,
      "##uek": 267,
      "rum": 268,
      "##noe": 269,
      "raja": 270,
      "geup": 271,
      "geub": 272,
      "meuny": 273,
      "mal": 274,
      "jit": 275,
      "##insi": 276,
      "mak": 277,
      "##ana": 278,
      "bah": 279,
      "meut": 280,
      "##angk": 281,
      "meul": 282,
      "kon": 283,
      "meur": 284,
      "gobnyan": 285,
      "##ed": 286,
      "##ya": 287,
      "is": 288,
      "di": 289,
      "yg": 290,
      "br": 291,
      "pul": 292,
      "##od": 293,
      "peur": 294,
      "hai": 295,
      "##iet": 296,
      "hab": 297,
      "kam": 298,
      "##anyoe": 299,
      "mantong": 300,
      "nan": 301,
      "rumoh": 302,
      "deung": 303,
      "ub": 304,
      "##ayah": 305,
      "meus": 306,
      "##agoe": 307,
      "##aya": 308,
      "sidroe": 309,
      "thon": 310,
      "##ha": 311,
      "ek": 312,
      "per": 313,
      "##pat": 314,
      "##nt": 315,
      "bang": 316,
      "pad": 317,
      "##ui": 318,
      "keur": 319,
      "##alon": 320,
      "rak": 321,
      "peue": 322,
      "ad": 323,
      "pak": 324,
      "prop": 325,
      "mu": 326,
      "keun": 327,
      "##ja": 328,
      "ag": 329,
      "peng": 330,
      "##ungk": 331,
      "##ga": 332,
      "ber": 333,
      "kay": 334,
      "propinsi": 335,
      "ph": 336,
      "meuh": 337,
      "sal": 338,
      "##oeh": 339,
      "put": 340,
      "##ump": 341,
      "jip": 342,
      "##ayang": 343,
      "haba": 344,
      "##eud": 345,
      "lheueh": 346,
      "njang": 347,
      "##andum": 348,
      "seum": 349,
      "kar": 350,
      "sabab": 351,
      "jinoe": 352,
      "##uda": 353,
      "oh": 354,
      "seul": 355,
      "##eubeh": 356,
      "am": 357,
      "##eup": 358,
      "##yah": 359,
      "##ka": 360,
      "##ase": 361,
      "##esia": 362,
      "mas": 363,
      "##og": 364,
      "raya": 365,
      "teungoh": 366,
      "peugah": 367,
      "jipeu": 368,
      "kr": 369,
      "kheun": 370,
      "kah": 371,
      "##got": 372,
      "##cam": 373,
      "##kan": 374,
      "samp": 375,
      "geum": 376,
      "kom": 377,
      "keuh": 378,
      "meuk": 379,
      "##uri": 380,
      "tan": 381,
      "leubeh": 382,
      "indon": 383,
      "bin": 384,
      "ie": 385,
      "##ie": 386,
      "mandum": 387,
      "geujak": 388,
      "keud": 389,
      "bandum": 390,
      "##os": 391,
      "##oi": 392,
      "njan": 393,
      "man": 394,
      "geutanyoe": 395,
      "gampoeng": 396,
      "indonesia": 397,
      "##na": 398,
      "jeut": 399,
      "##camatan": 400,
      "tim": 401,
      "ut": 402,
      "##tr": 403,
      "pulo": 404,
      "##ingg": 405,
      "gop": 406,
      "kap": 407,
      "tam": 408,
      "bl": 409,
      "bul": 410,
      "prang": 411,
      "##lam": 412,
      "##ian": 413,
      "keucamatan": 414,
      "ar": 415,
      "##ua": 416,
      "sig": 417,
      "##oet": 418,
      "ma": 419,
      "meunyo": 420,
      "##anda": 421,
      "ureung": 422,
      "geuk": 423,
      "##ita": 424,
      "lak": 425,
      "##bagoe": 426,
      "rayek": 427,
      "geuh": 428,
      "teungku": 429,
      "peun": 430,
      "teumpat": 431,
      "##anyong": 432,
      "##angat": 433,
      "il": 434,
      "##keuh": 435,
      "##euna": 436,
      "pal": 437,
      "jijak": 438,
      "##ti": 439,
      "##uh": 440,
      "beu": 441,
      "men": 442,
      "pen": 443,
      "deungon": 444,
      "##euek": 445,
      "allah": 446,
      "muda": 447,
      "mat": 448,
      "tak": 449,
      "kamoe": 450,
      "peul": 451,
      "##ji": 452,
      "pan": 453,
      "##man": 454,
      "ayah": 455,
      "beut": 456,
      "tuha": 457,
      "##ula": 458,
      "##uwa": 459,
      "pat": 460,
      "basa": 461,
      "##amb": 462,
      "sampoe": 463,
      "ch": 464,
      "geud": 465,
      "har": 466,
      "##cok": 467,
      "ap": 468,
      "##uta": 469,
      "dar": 470,
      "soe": 471,
      "##wa": 472,
      "buk": 473,
      "jar": 474,
      "sabe": 475,
      "gata": 476,
      "ku": 477,
      "baro": 478,
      "bat": 479,
      "sira": 480,
      "##inggai": 481,
      "geul": 482,
      "um": 483,
      "##kheun": 484,
      "buet": 485,
      "nang": 486,
      "##yat": 487,
      "jim": 488,
      "tap": 489,
      "abu": 490,
      "##heh": 491,
      "inong": 492,
      "ulama": 493,
      "kal": 494,
      "##ari": 495,
      "leum": 496,
      "ram": 497,
      "su": 498,
      "phon": 499,
      "##eg": 500,
      "pu": 501,
      "sik": 502,
      "islam": 503,
      "##le": 504,
      "geus": 505,
      "##ov": 506,
      "troh": 507,
      "banda": 508,
      "##ci": 509,
      "##ta": 510,
      "##han": 511,
      "mangat": 512,
      "bac": 513,
      "mer": 514,
      "gopnyan": 515,
      "##rah": 516,
      "jib": 517,
      "##eus": 518,
      "##angan": 519,
      "acheh": 520,
      "##woe": 521,
      "laot": 522,
      "bal": 523,
      "##iy": 524,
      "ud": 525,
      "##uleh": 526,
      "##nan": 527,
      "awai": 528,
      "jik": 529,
      "buleuen": 530,
      "pem": 531,
      "ti": 532,
      "beur": 533,
      "pang": 534,
      "##wan": 535,
      "##jeuet": 536,
      "##anyang": 537,
      "dil": 538,
      "peut": 539,
      "dr": 540,
      "bu": 541,
      "rakyat": 542,
      "##ina": 543,
      "tat": 544,
      "##gr": 545,
      "ang": 546,
      "kayee": 547,
      "##ei": 548,
      "##dek": 549,
      "##unoe": 550,
      "teut": 551,
      "akh": 552,
      "##aih": 553,
      "droen": 554,
      "##aga": 555,
      "##ali": 556,
      "##ent": 557,
      "##ajoh": 558,
      "ak": 559,
      "salah": 560,
      "##alam": 561,
      "agam": 562,
      "##li": 563,
      "wil": 564,
      "##eueb": 565,
      "don": 566,
      "##ug": 567,
      "timu": 568,
      "teunt": 569,
      "tapeu": 570,
      "dum": 571,
      "##rang": 572,
      "##jeh": 573,
      "##uka": 574,
      "pid": 575,
      "jawa": 576,
      "##akat": 577,
      "##ika": 578,
      "##lom": 579,
      "keub": 580,
      "seun": 581,
      "##geuh": 582,
      "rot": 583,
      "##tan": 584,
      "meub": 585,
      "##asan": 586,
      "##deka": 587,
      "##alak": 588,
      "gad": 589,
      "##ajih": 590,
      "##uan": 591,
      "##abi": 592,
      "jam": 593,
      "##gara": 594,
      "abd": 595,
      "nyo": 596,
      "meunyoe": 597,
      "ateueh": 598,
      "putroe": 599,
      "lage": 600,
      "ulee": 601,
      "teuk": 602,
      "barat": 603,
      "de": 604,
      "##ham": 605,
      "##jar": 606,
      "trok": 607,
      "donya": 608,
      "sing": 609,
      "bangsa": 610,
      "##duek": 611,
      "un": 612,
      "malam": 613,
      "bant": 614,
      "gam": 615,
      "wilayah": 616,
      "bad": 617,
      "tg": 618,
      "##ajah": 619,
      "baroe": 620,
      "paleng": 621,
      "nek": 622,
      "##ike": 623,
      "bansa": 624,
      "jaroe": 625,
      "meup": 626,
      "droeneuh": 627,
      "sul": 628,
      "##amah": 629,
      "geupeugah": 630,
      "##aka": 631,
      "teuka": 632,
      "par": 633,
      "##ch": 634,
      "##oek": 635,
      "geukheun": 636,
      "tinggai": 637,
      "mata": 638,
      "keum": 639,
      "##ern": 640,
      "##esi": 641,
      "##ala": 642,
      "agama": 643,
      "##ati": 644,
      "tok": 645,
      "##heun": 646,
      "da": 647,
      "kheueh": 648,
      "##usia": 649,
      "##aweueb": 650,
      "##dang": 651,
      "sip": 652,
      "keudeh": 653,
      "krueng": 654,
      "##imong": 655,
      "tgk": 656,
      "##ajaan": 657,
      "##ureueng": 658,
      "rayeuk": 659,
      "kat": 660,
      "kayem": 661,
      "pidie": 662,
      "kheuh": 663,
      "bacut": 664,
      "taj": 665,
      "##dong": 666,
      "dayah": 667,
      "ih": 668,
      "po": 669,
      "suk": 670,
      "eungk": 671,
      "##iban": 672,
      "##imp": 673,
      "##unong": 674,
      "keul": 675,
      "blah": 676,
      "tanyong": 677,
      "##eug": 678,
      "##itas": 679,
      "tanoh": 680,
      "##among": 681,
      "rim": 682,
      "##st": 683,
      "##mad": 684,
      "##umat": 685,
      "thoen": 686,
      "lhee": 687,
      "bereh": 688,
      "##lueng": 689,
      "##iah": 690,
      "galak": 691,
      "sib": 692,
      "dj": 693,
      "##ahe": 694,
      "tur": 695,
      "blang": 696,
      "akhe": 697,
      "mus": 698,
      "##da": 699,
      "##eumee": 700,
      "pa": 701,
      "sit": 702,
      "keurajaan": 703,
      "##alan": 704,
      "ngen": 705,
      "bi": 706,
      "##loe": 707,
      "lagu": 708,
      "##roh": 709,
      "meug": 710,
      "merdeka": 711,
      "beul": 712,
      "##ubuet": 713,
      "nabi": 714,
      "##ip": 715,
      "pus": 716,
      "tab": 717,
      "meud": 718,
      "geubri": 719,
      "sim": 720,
      "sak": 721,
      "##emb": 722,
      "abeh": 723,
      "rakan": 724,
      "bir": 725,
      "mita": 726,
      "##rak": 727,
      "ter": 728,
      "##yan": 729,
      "bineh": 730,
      "##atu": 731,
      "##ieng": 732,
      "tuan": 733,
      "tul": 734,
      "##utan": 735,
      "##anj": 736,
      "##apat": 737,
      "pant": 738,
      "sam": 739,
      "uj": 740,
      "##awan": 741,
      "atjeh": 742,
      "##uwah": 743,
      "ngoen": 744,
      "ate": 745,
      "dilee": 746,
      "bangai": 747,
      "pase": 748,
      "tal": 749,
      "beung": 750,
      "##isi": 751,
      "nanggroejih": 752,
      "##into": 753,
      "##intah": 754,
      "ion": 755,
      "##uen": 756,
      "##yue": 757,
      "cok": 758,
      "duek": 759,
      "##adum": 760,
      "geupeut": 761,
      "##he": 762,
      "seumayang": 763,
      "teub": 764,
      "seuot": 765,
      "peureul": 766,
      "kapai": 767,
      "bag": 768,
      "pol": 769,
      "geung": 770,
      "lheuh": 771,
      "sinan": 772,
      "pas": 773,
      "##eungo": 774,
      "aneuek": 775,
      "teuh": 776,
      "##ohlom": 777,
      "neupeu": 778,
      "udep": 779,
      "pue": 780,
      "sur": 781,
      "sol": 782,
      "##deh": 783,
      "eungkot": 784,
      "get": 785,
      "pe": 786,
      "##lim": 787,
      "mup": 788,
      "ateuh": 789,
      "##era": 790,
      "tuhan": 791,
      "peuk": 792,
      "bahsa": 793,
      "mate": 794,
      "##seul": 795,
      "##ind": 796,
      "bab": 797,
      "##ira": 798,
      "awaknyan": 799,
      "dit": 800,
      "hat": 801,
      "##br": 802,
      "peum": 803,
      "##uss": 804,
      "##ingk": 805,
      "##euj": 806,
      "##atang": 807,
      "##agai": 808,
      "##put": 809,
      "##get": 810,
      "prov": 811,
      "el": 812,
      "##aki": 813,
      "pi": 814,
      "##hat": 815,
      "##akee": 816,
      "geupeugot": 817,
      "sikula": 818,
      "gur": 819,
      "##co": 820,
      "keudroe": 821,
      "##eumeung": 822,
      "sap": 823,
      "##aran": 824,
      "teup": 825,
      "provinsi": 826,
      "ho": 827,
      "lang": 828,
      "##ullah": 829,
      "seur": 830,
      "leup": 831,
      "sa": 832,
      "##ef": 833,
      "##hah": 834,
      "ri": 835,
      "sil": 836,
      "##ajan": 837,
      "##antoe": 838,
      "padum": 839,
      "inan": 840,
      "tanyoe": 841,
      "##oy": 842,
      "geur": 843,
      "teutap": 844,
      "##ou": 845,
      "##tur": 846,
      "##yar": 847,
      "jis": 848,
      "##ikot": 849,
      "ist": 850,
      "rame": 851,
      "car": 852,
      "im": 853,
      "##ba": 854,
      "keunoe": 855,
      "loen": 856,
      "##iek": 857,
      "buku": 858,
      "gl": 859,
      "luwa": 860,
      "peus": 861,
      "##eudoh": 862,
      "kareuna": 863,
      "##jok": 864,
      "kaw": 865,
      "keuraj": 866,
      "ras": 867,
      "##ahan": 868,
      "##ont": 869,
      "seubagoe": 870,
      "woe": 871,
      "##pok": 872,
      "dara": 873,
      "##din": 874,
      "##euem": 875,
      "teun": 876,
      "meny": 877,
      "gadoh": 878,
      "deuh": 879,
      "tar": 880,
      "##ig": 881,
      "##aboh": 882,
      "##inan": 883,
      "##nyoe": 884,
      "##euta": 885,
      "geungui": 886,
      "mar": 887,
      "##ki": 888,
      "unt": 889,
      "##uran": 890,
      "##opul": 891,
      "##seulam": 892,
      "ci": 893,
      "sang": 894,
      "asai": 895,
      "geukalon": 896,
      "##aen": 897,
      "bint": 898,
      "##ma": 899,
      "lap": 900,
      "bud": 901,
      "se": 902,
      "st": 903,
      "med": 904,
      "sj": 905,
      "ubak": 906,
      "kul": 907,
      "mah": 908,
      "tek": 909,
      "##uroe": 910,
      "rimueng": 911,
      "neuk": 912,
      "manusia": 913,
      "kalon": 914,
      "wate": 915,
      "beutoi": 916,
      "rup": 917,
      "alam": 918,
      "cut": 919,
      "ib": 920,
      "rab": 921,
      "ser": 922,
      "lamp": 923,
      "int": 924,
      "jeun": 925,
      "asci": 926,
      "pakon": 927,
      "##ungken": 928,
      "ascii": 929,
      "##awen": 930,
      "##irah": 931,
      "##ingat": 932,
      "keunan": 933,
      "panc": 934,
      "tiep": 935,
      "naga": 936,
      "seulatan": 937,
      "sagai": 938,
      "saban": 939,
      "neugara": 940,
      "meutamah": 941,
      "dis": 942,
      "huk": 943,
      "ing": 944,
      "ke": 945,
      "##end": 946,
      "bandua": 947,
      "##umpadum": 948,
      "keurajeuen": 949,
      "kuta": 950,
      "uk": 951,
      "jid": 952,
      "solutan": 953,
      "rh": 954,
      "syah": 955,
      "ilee": 956,
      "bung": 957,
      "puk": 958,
      "##umpok": 959,
      "##alah": 960,
      "ija": 961,
      "miet": 962,
      "siat": 963,
      "dipeu": 964,
      "##yarakat": 965,
      "baj": 966,
      "jaya": 967,
      "##alem": 968,
      "##udoe": 969,
      "##eubiet": 970,
      "en": 971,
      "sh": 972,
      "sumat": 973,
      "##ort": 974,
      "sukee": 975,
      "ik": 976,
      "##se": 977,
      "##urot": 978,
      "##jarah": 979,
      "pl": 980,
      "geuyue": 981,
      "meuc": 982,
      "nyankeuh": 983,
      "padumpadum": 984,
      "tub": 985,
      "##ram": 986,
      "##ikan": 987,
      "trep": 988,
      "meuj": 989,
      "muham": 990,
      "lee": 991,
      "ulon": 992,
      "laks": 993,
      "##hon": 994,
      "meung": 995,
      "mis": 996,
      "panyang": 997,
      "sun": 998,
      "war": 999,
      "bum": 1000,
      "eseulam": 1001,
      "ui": 1002,
      "##af": 1003,
      "##ro": 1004,
      "##oem": 1005,
      "dip": 1006,
      "##odo": 1007,
      "muhammad": 1008,
      "jil": 1009,
      "gunong": 1010,
      "ker": 1011,
      "mod": 1012,
      "##ussalam": 1013,
      "peung": 1014,
      "##ada": 1015,
      "tajak": 1016,
      "beuk": 1017,
      "##mat": 1018,
      "ureng": 1019,
      "badak": 1020,
      "sar": 1021,
      "##eunt": 1022,
      "leupah": 1023,
      "##hee": 1024,
      "##erah": 1025,
      "##ileh": 1026,
      "syar": 1027,
      "gaki": 1028,
      "linto": 1029,
      "##lon": 1030,
      "gle": 1031,
      "yoh": 1032,
      "sultan": 1033,
      "##impin": 1034,
      "##arit": 1035,
      "teuntra": 1036,
      "##jad": 1037,
      "alat": 1038,
      "komodo": 1039,
      "kajak": 1040,
      "jameun": 1041,
      "##stem": 1042,
      "inggr": 1043,
      "min": 1044,
      "payah": 1045,
      "##joh": 1046,
      "##angsa": 1047,
      "masyarakat": 1048,
      "meusi": 1049,
      "uteuen": 1050,
      "banta": 1051,
      "turing": 1052,
      "##lima": 1053,
      "bintang": 1054,
      "dudoe": 1055,
      "got": 1056,
      "seub": 1057,
      "dik": 1058,
      "neub": 1059,
      "sem": 1060,
      "##ij": 1061,
      "sibagoe": 1062,
      "arab": 1063,
      "##qu": 1064,
      "it": 1065,
      "ju": 1066,
      "kana": 1067,
      "maj": 1068,
      "##sasa": 1069,
      "##ongan": 1070,
      "##eubah": 1071,
      "##iyoh": 1072,
      "ah": 1073,
      "mirah": 1074,
      "neuh": 1075,
      "sah": 1076,
      "##ans": 1077,
      "panglima": 1078,
      "hase": 1079,
      "kur": 1080,
      "pah": 1081,
      "lahe": 1082,
      "rus": 1083,
      "sp": 1084,
      "##bah": 1085,
      "##ukop": 1086,
      "mub": 1087,
      "treb": 1088,
      "beulanda": 1089,
      "##iv": 1090,
      "##angkat": 1091,
      "pade": 1092,
      "##akan": 1093,
      "##aseng": 1094,
      "pakat": 1095,
      "asoe": 1096,
      "but": 1097,
      "cu": 1098,
      "##onal": 1099,
      "seup": 1100,
      "bahasa": 1101,
      "inggreh": 1102,
      "##lik": 1103,
      "##ast": 1104,
      "##umb": 1105,
      "bireuen": 1106,
      "jalan": 1107,
      "mud": 1108,
      "##jeut": 1109,
      "##peugah": 1110,
      "jitamong": 1111,
      "bagah": 1112,
      "manyang": 1113,
      "sup": 1114,
      "istana": 1115,
      "mot": 1116,
      "##ran": 1117,
      "sistem": 1118,
      "##angkah": 1119,
      "pusat": 1120,
      "had": 1121,
      "dewa": 1122,
      "ba": 1123,
      "kup": 1124,
      "sub": 1125,
      "wali": 1126,
      "##usi": 1127,
      "hate": 1128,
      "kut": 1129,
      "##reh": 1130,
      "deungoen": 1131,
      "peuland": 1132,
      "saket": 1133,
      "bid": 1134,
      "##ulia": 1135,
      "ali": 1136,
      "treuk": 1137,
      "tangg": 1138,
      "##uem": 1139,
      "takalon": 1140,
      "singoh": 1141,
      "cukop": 1142,
      "neut": 1143,
      "pung": 1144,
      "##eumah": 1145,
      "##ache": 1146,
      "adoe": 1147,
      "umu": 1148,
      "kak": 1149,
      "geucok": 1150,
      "meubagoe": 1151,
      "##alit": 1152,
      "puteh": 1153,
      "djih": 1154,
      "on": 1155,
      "##antu": 1156,
      "##hai": 1157,
      "kawan": 1158,
      "##itab": 1159,
      "saw": 1160,
      "##ni": 1161,
      "port": 1162,
      "tujoh": 1163,
      "meurumpok": 1164,
      "keuneuk": 1165,
      "beun": 1166,
      "eun": 1167,
      "##yang": 1168,
      "teur": 1169,
      "brat": 1170,
      "##ugeh": 1171,
      "lem": 1172,
      "bel": 1173,
      "bunoe": 1174,
      "mungken": 1175,
      "tad": 1176,
      "##anc": 1177,
      "##ungan": 1178,
      "jipeugah": 1179,
      "komput": 1180,
      "pante": 1181,
      "limong": 1182,
      "##olog": 1183,
      "abdur": 1184,
      "kel": 1185,
      "##joe": 1186,
      "kad": 1187,
      "atra": 1188,
      "##kah": 1189,
      "peugot": 1190,
      "amir": 1191,
      "pancuri": 1192,
      "bumoe": 1193,
      "##ale": 1194,
      "peud": 1195,
      "##ayu": 1196,
      "ilm": 1197,
      "taloe": 1198,
      "bungong": 1199,
      "ken": 1200,
      "##ayat": 1201,
      "##opulo": 1202,
      "gen": 1203,
      "##tor": 1204,
      "##hom": 1205,
      "##heueh": 1206,
      "geuwoe": 1207,
      "##awang": 1208,
      "lakoe": 1209,
      "apache": 1210,
      "beuet": 1211,
      "jeh": 1212,
      "sel": 1213,
      "##oed": 1214,
      "##asin": 1215,
      "pulopulo": 1216,
      "##nteng": 1217,
      "peureulee": 1218,
      "carong": 1219,
      "jeuneh": 1220,
      "pajoh": 1221,
      "us": 1222,
      "ya": 1223,
      "geun": 1224,
      "##enyan": 1225,
      "##eran": 1226,
      "##aji": 1227,
      "##ikat": 1228,
      "njoe": 1229,
      "mualem": 1230,
      "leumo": 1231,
      "laksana": 1232,
      "meuhase": 1233,
      "maseng": 1234,
      "keue": 1235,
      "kir": 1236,
      "poh": 1237,
      "rah": 1238,
      "##san": 1239,
      "keunong": 1240,
      "##ektur": 1241,
      "##ikh": 1242,
      "meurah": 1243,
      "keureuna": 1244,
      "geulayang": 1245,
      "ujong": 1246,
      "bit": 1247,
      "gub": 1248,
      "kiban": 1249,
      "peuet": 1250,
      "tem": 1251,
      "##anan": 1252,
      "teupeu": 1253,
      "##erasi": 1254,
      "##nya": 1255,
      "batee": 1256,
      "jioh": 1257,
      "##asah": 1258,
      "peukan": 1259,
      "neup": 1260,
      "me": 1261,
      "muk": 1262,
      "pun": 1263,
      "waj": 1264,
      "teul": 1265,
      "##eume": 1266,
      "alue": 1267,
      "geupeul": 1268,
      "uleue": 1269,
      "##angka": 1270,
      "bet": 1271,
      "kl": 1272,
      "mur": 1273,
      "##wah": 1274,
      "iheueh": 1275,
      "surat": 1276,
      "lad": 1277,
      "meunurot": 1278,
      "teuntee": 1279,
      "babah": 1280,
      "##igoe": 1281,
      "id": 1282,
      "##riban": 1283,
      "##umoh": 1284,
      "##aca": 1285,
      "samud": 1286,
      "##ologi": 1287,
      "kitab": 1288,
      "##aba": 1289,
      "##ubloe": 1290,
      "meukawen": 1291,
      "darussalam": 1292,
      "be": 1293,
      "##aa": 1294,
      "jikheun": 1295,
      "##rahman": 1296,
      "##alitra": 1297,
      "bui": 1298,
      "god": 1299,
      "gohlom": 1300,
      "jaw": 1301,
      "tom": 1302,
      "##peue": 1303,
      "##uddin": 1304,
      "##olom": 1305,
      "daerah": 1306,
      "portugeh": 1307,
      "jaweueb": 1308,
      "jroh": 1309,
      "meng": 1310,
      "miy": 1311,
      "so": 1312,
      "kaya": 1313,
      "peuny": 1314,
      "peunteng": 1315,
      "##ota": 1316,
      "##andar": 1317,
      "pakriban": 1318,
      "kas": 1319,
      "##loh": 1320,
      "kameng": 1321,
      "pasi": 1322,
      "pawang": 1323,
      "##ter": 1324,
      "##ani": 1325,
      "lawan": 1326,
      "##ode": 1327,
      "ben": 1328,
      "kamp": 1329,
      "mem": 1330,
      "toe": 1331,
      "##ers": 1332,
      "leman": 1333,
      "ubit": 1334,
      "utara": 1335,
      "tamong": 1336,
      "sumatra": 1337,
      "paya": 1338,
      "##bl": 1339,
      "jiwoe": 1340,
      "binatang": 1341,
      "geuduek": 1342,
      "bub": 1343,
      "jan": 1344,
      "nyak": 1345,
      "seut": 1346,
      "ureuengureueng": 1347,
      "geuba": 1348,
      "beungoh": 1349,
      "tuboh": 1350,
      "eh": 1351,
      "narit": 1352,
      "##isa": 1353,
      "##ogram": 1354,
      "bloe": 1355,
      "dai": 1356,
      "fil": 1357,
      "leuh": 1358,
      "mon": 1359,
      "mel": 1360,
      "tj": 1361,
      "##no": 1362,
      "##eungoe": 1363,
      "##uwoe": 1364,
      "lakee": 1365,
      "guree": 1366,
      "godot": 1367,
      "duk": 1368,
      "laoet": 1369,
      "##awi": 1370,
      "cah": 1371,
      "jeup": 1372,
      "nas": 1373,
      "##jah": 1374,
      "##for": 1375,
      "meum": 1376,
      "##inoe": 1377,
      "##ernur": 1378,
      "hind": 1379,
      "roh": 1380,
      "kub": 1381,
      "##rop": 1382,
      "##adi": 1383,
      "##rija": 1384,
      "hukom": 1385,
      "bagoe": 1386,
      "jok": 1387,
      "ok": 1388,
      "rap": 1389,
      "##la": 1390,
      "##aman": 1391,
      "##ila": 1392,
      "##isah": 1393,
      "geuboh": 1394,
      "meusen": 1395,
      "batik": 1396,
      "pajan": 1397,
      "##amat": 1398,
      "##asis": 1399,
      "##aik": 1400,
      "##illah": 1401,
      "##asional": 1402,
      "ube": 1403,
      "moto": 1404,
      "gu": 1405,
      "go": 1406,
      "hak": 1407,
      "##uf": 1408,
      "##inah": 1409,
      "##awe": 1410,
      "##una": 1411,
      "part": 1412,
      "jeum": 1413,
      "tut": 1414,
      "yasin": 1415,
      "##aket": 1416,
      "##euhi": 1417,
      "sir": 1418,
      "pref": 1419,
      "##udi": 1420,
      "baroh": 1421,
      "meuloed": 1422,
      "maseuhi": 1423,
      "lampoh": 1424,
      "hasan": 1425,
      "sep": 1426,
      "##ho": 1427,
      "##ii": 1428,
      "##arang": 1429,
      "##asoe": 1430,
      "##angga": 1431,
      "lhok": 1432,
      "pend": 1433,
      "puasa": 1434,
      "pegah": 1435,
      "dairah": 1436,
      "glah": 1437,
      "langkah": 1438,
      "tac": 1439,
      "##euoh": 1440,
      "jicok": 1441,
      "##juang": 1442,
      "adak": 1443,
      "sapeue": 1444,
      "seupot": 1445,
      "fad": 1446,
      "lat": 1447,
      "tas": 1448,
      "wangsa": 1449,
      "##ron": 1450,
      "angk": 1451,
      "univ": 1452,
      "##eugom": 1453,
      "paus": 1454,
      "bg": 1455,
      "luwah": 1456,
      "##cem": 1457,
      "sid": 1458,
      "mantap": 1459,
      "del": 1460,
      "fat": 1461,
      "##ukong": 1462,
      "##tif": 1463,
      "chik": 1464,
      "rasul": 1465,
      "komputer": 1466,
      "abdurrahman": 1467,
      "gubernur": 1468,
      "prefektur": 1469,
      "##wo": 1470,
      "makm": 1471,
      "meuligoe": 1472,
      "lua": 1473,
      "tah": 1474,
      "meuen": 1475,
      "manok": 1476,
      "rupa": 1477,
      "beuna": 1478,
      "do": 1479,
      "yah": 1480,
      "geuj": 1481,
      "siuroe": 1482,
      "alah": 1483,
      "amp": 1484,
      "keubeue": 1485,
      "seud": 1486,
      "seunang": 1487,
      "buta": 1488,
      "pap": 1489,
      "##onan": 1490,
      "##arga": 1491,
      "jiplueng": 1492,
      "pane": 1493,
      "kee": 1494,
      "nam": 1495,
      "tun": 1496,
      "tanda": 1497,
      "tunong": 1498,
      "##pa": 1499,
      "##arta": 1500,
      "##alang": 1501,
      "peug": 1502,
      "geupeur": 1503,
      "peureulak": 1504,
      "mudah": 1505,
      "aju": 1506,
      "jum": 1507,
      "jamb": 1508,
      "kun": 1509,
      "muka": 1510,
      "##eupeu": 1511,
      "##onom": 1512,
      "##ail": 1513,
      "teunggara": 1514,
      "##acam": 1515,
      "end": 1516,
      "sare": 1517,
      "kureueng": 1518,
      "likot": 1519,
      "met": 1520,
      "##aku": 1521,
      "keudua": 1522,
      "abdullah": 1523,
      "##ingkat": 1524,
      "##eikh": 1525,
      "##erintah": 1526,
      "##anyan": 1527,
      "habeh": 1528,
      "wajeb": 1529,
      "mek": 1530,
      "##uah": 1531,
      "geuc": 1532,
      "##udep": 1533,
      "##iro": 1534,
      "ubeut": 1535,
      "aman": 1536,
      "darah": 1537,
      "dron": 1538,
      "spesi": 1539,
      "bay": 1540,
      "##gan": 1541,
      "##hi": 1542,
      "##alis": 1543,
      "inoe": 1544,
      "##elit": 1545,
      "sigohlom": 1546,
      "polit": 1547,
      "univers": 1548,
      "bungk": 1549,
      "hek": 1550,
      "kes": 1551,
      "tik": 1552,
      "geug": 1553,
      "##arat": 1554,
      "neuduek": 1555,
      "apui": 1556,
      "toke": 1557,
      "peukara": 1558,
      "calitra": 1559,
      "##aha": 1560,
      "##ena": 1561,
      "##errak": 1562,
      "##ulang": 1563,
      "malee": 1564,
      "darul": 1565,
      "##erraksasa": 1566,
      "djeuet": 1567,
      "kuw": 1568,
      "ruk": 1569,
      "##cara": 1570,
      "meurunoe": 1571,
      "##ianat": 1572,
      "puko": 1573,
      "hay": 1574,
      "sen": 1575,
      "troe": 1576,
      "##su": 1577,
      "##yoe": 1578,
      "##arah": 1579,
      "##aseh": 1580,
      "##ubah": 1581,
      "geupeus": 1582,
      "asee": 1583,
      "##amba": 1584,
      "dajah": 1585,
      "kota": 1586,
      "##vi": 1587,
      "##agi": 1588,
      "##anyo": 1589,
      "syiek": 1590,
      "leumoe": 1591,
      "jikalon": 1592,
      "dro": 1593,
      "akhejih": 1594,
      "seureuta": 1595,
      "amirika": 1596,
      "partai": 1597,
      "deng": 1598,
      "ham": 1599,
      "kem": 1600,
      "keb": 1601,
      "rep": 1602,
      "##eo": 1603,
      "keup": 1604,
      "##euneuk": 1605,
      "ubat": 1606,
      "balee": 1607,
      "tapeugah": 1608,
      "ket": 1609,
      "pand": 1610,
      "##ato": 1611,
      "amin": 1612,
      "peund": 1613,
      "budaya": 1614,
      "##asiswa": 1615,
      "endatu": 1616,
      "iam": 1617,
      "jad": 1618,
      "nur": 1619,
      "or": 1620,
      "pik": 1621,
      "##ea": 1622,
      "##if": 1623,
      "acara": 1624,
      "##unan": 1625,
      "##ueb": 1626,
      "india": 1627,
      "##edara": 1628,
      "sigo": 1629,
      "baca": 1630,
      "untoek": 1631,
      "dam": 1632,
      "dib": 1633,
      "daya": 1634,
      "hir": 1635,
      "km": 1636,
      "##pih": 1637,
      "##te": 1638,
      "##akot": 1639,
      "kadang": 1640,
      "peub": 1641,
      "##uli": 1642,
      "##eukat": 1643,
      "##bahyang": 1644,
      "asia": 1645,
      "hor": 1646,
      "saweueb": 1647,
      "##uarga": 1648,
      "##troe": 1649,
      "##ult": 1650,
      "lamb": 1651,
      "##ust": 1652,
      "seumbahyang": 1653,
      "bajee": 1654,
      "af": 1655,
      "bhah": 1656,
      "ked": 1657,
      "ne": 1658,
      "##uny": 1659,
      "##eulah": 1660,
      "##arek": 1661,
      "##aleh": 1662,
      "sideh": 1663,
      "ramah": 1664,
      "##onomi": 1665,
      "dang": 1666,
      "gr": 1667,
      "jaga": 1668,
      "##oo": 1669,
      "##euka": 1670,
      "program": 1671,
      "pemb": 1672,
      "beureugom": 1673,
      "angen": 1674,
      "eleumee": 1675,
      "medan": 1676,
      "tekn": 1677,
      "eump": 1678,
      "##bak": 1679,
      "##maseng": 1680,
      "##ca": 1681,
      "khus": 1682,
      "barang": 1683,
      "penelit": 1684,
      "chit": 1685,
      "akai": 1686,
      "masengmaseng": 1687,
      "miyup": 1688,
      "din": 1689,
      "has": 1690,
      "kor": 1691,
      "mil": 1692,
      "nya": 1693,
      "##abr": 1694,
      "teuga": 1695,
      "##ith": 1696,
      "##urat": 1697,
      "leumah": 1698,
      "##eusud": 1699,
      "mahasiswa": 1700,
      "superraksasa": 1701,
      "peulandok": 1702,
      "rusia": 1703,
      "##ain": 1704,
      "jir": 1705,
      "sin": 1706,
      "##ukan": 1707,
      "##upeue": 1708,
      "meukat": 1709,
      "beungeh": 1710,
      "jeupang": 1711,
      "hub": 1712,
      "sk": 1713,
      "tang": 1714,
      "##lan": 1715,
      "##hh": 1716,
      "jig": 1717,
      "##alat": 1718,
      "##alek": 1719,
      "##anto": 1720,
      "##ingan": 1721,
      "abuwa": 1722,
      "jakarta": 1723,
      "malay": 1724,
      "isk": 1725,
      "komp": 1726,
      "siblah": 1727,
      "muprang": 1728,
      "langs": 1729,
      "##ses": 1730,
      "teuku": 1731,
      "preh": 1732,
      "##ungg": 1733,
      "dig": 1734,
      "##iz": 1735,
      "##jan": 1736,
      "##aroh": 1737,
      "##irem": 1738,
      "geutanyong": 1739,
      "makanan": 1740,
      "aduen": 1741,
      "bale": 1742,
      "kupi": 1743,
      "iskandar": 1744,
      "beud": 1745,
      "data": 1746,
      "hna": 1747,
      "jai": 1748,
      "obl": 1749,
      "pup": 1750,
      "pike": 1751,
      "re": 1752,
      "tuleh": 1753,
      "##oga": 1754,
      "geujok": 1755,
      "##eunak": 1756,
      "peurumoh": 1757,
      "intern": 1758,
      "oblast": 1759,
      "neum": 1760,
      "##kar": 1761,
      "##asar": 1762,
      "##imang": 1763,
      "##eumpok": 1764,
      "##inta": 1765,
      "malik": 1766,
      "##uhan": 1767,
      "pemerintah": 1768,
      "sequ": 1769,
      "cahya": 1770,
      "jur": 1771,
      "neg": 1772,
      "pubuet": 1773,
      "sayang": 1774,
      "yo": 1775,
      "##egah": 1776,
      "##aat": 1777,
      "##sy": 1778,
      "##jid": 1779,
      "kajeuet": 1780,
      "neujak": 1781,
      "##eda": 1782,
      "musi": 1783,
      "phoen": 1784,
      "##eupeue": 1785,
      "tapak": 1786,
      "daud": 1787,
      "dim": 1788,
      "peuh": 1789,
      "##ic": 1790,
      "##zak": 1791,
      "##abe": 1792,
      "##abat": 1793,
      "##omb": 1794,
      "meuntroe": 1795,
      "##ingka": 1796,
      "keude": 1797,
      "kalim": 1798,
      "##jadian": 1799,
      "malaysia": 1800,
      "haji": 1801,
      "kol": 1802,
      "##uju": 1803,
      "##rok": 1804,
      "##jajah": 1805,
      "##ahai": 1806,
      "##oses": 1807,
      "beus": 1808,
      "cicem": 1809,
      "model": 1810,
      "bri": 1811,
      "majih": 1812,
      "op": 1813,
      "up": 1814,
      "##hu": 1815,
      "##akira": 1816,
      "##ubat": 1817,
      "ase": 1818,
      "kuala": 1819,
      "riw": 1820,
      "seubab": 1821,
      "fit": 1822,
      "pom": 1823,
      "pel": 1824,
      "##ual": 1825,
      "##ake": 1826,
      "jiduek": 1827,
      "teug": 1828,
      "syedara": 1829,
      "adat": 1830,
      "geuseum": 1831,
      "cot": 1832,
      "kep": 1833,
      "let": 1834,
      "pis": 1835,
      "##ikah": 1836,
      "ins": 1837,
      "uleh": 1838,
      "deungo": 1839,
      "putoh": 1840,
      "teks": 1841,
      "maju": 1842,
      "kirakira": 1843,
      "ladom": 1844,
      "bue": 1845,
      "goh": 1846,
      "many": 1847,
      "sagoe": 1848,
      "wal": 1849,
      "law": 1850,
      "droejih": 1851,
      "jipeugot": 1852,
      "ahli": 1853,
      "samudera": 1854,
      "peunyaket": 1855,
      "##form": 1856,
      "universitas": 1857,
      "pinto": 1858,
      "##teuh": 1859,
      "##den": 1860,
      "##nyo": 1861,
      "##anduri": 1862,
      "##usan": 1863,
      "##isan": 1864,
      "##juangan": 1865,
      "##ori": 1866,
      "abad": 1867,
      "makna": 1868,
      "ekonomi": 1869,
      "badan": 1870,
      "##ipina": 1871,
      "kampus": 1872,
      "beh": 1873,
      "jag": 1874,
      "pet": 1875,
      "pileh": 1876,
      "##min": 1877,
      "##euot": 1878,
      "keut": 1879,
      "##euha": 1880,
      "##ura": 1881,
      "##agah": 1882,
      "meunasah": 1883,
      "geutem": 1884,
      "maken": 1885,
      "puleh": 1886,
      "padahai": 1887,
      "geudeungo": 1888,
      "geulakee": 1889,
      "abdul": 1890,
      "##anjoe": 1891,
      "cuco": 1892,
      "tanggai": 1893,
      "hireuen": 1894,
      "sequo": 1895,
      "cina": 1896,
      "long": 1897,
      "yum": 1898,
      "##re": 1899,
      "##anja": 1900,
      "##ami": 1901,
      "teus": 1902,
      "##uba": 1903,
      "##idah": 1904,
      "teukeuj": 1905,
      "kawom": 1906,
      "jilakee": 1907,
      "hant": 1908,
      "geupeuk": 1909,
      "tuwan": 1910,
      "##rip": 1911,
      "meuteumee": 1912,
      "tulot": 1913,
      "betoi": 1914,
      "kuwasa": 1915,
      "sequoia": 1916,
      "gith": 1917,
      "joh": 1918,
      "##aloe": 1919,
      "aneukgeuh": 1920,
      "##juan": 1921,
      "##oll": 1922,
      "##eurintah": 1923,
      "kons": 1924,
      "meureumpok": 1925,
      "##embang": 1926,
      "miseue": 1927,
      "penelitian": 1928,
      "github": 1929,
      "cont": 1930,
      "fak": 1931,
      "gun": 1932,
      "juta": 1933,
      "tiro": 1934,
      "yeng": 1935,
      "##nam": 1936,
      "##tt": 1937,
      "##sat": 1938,
      "##dian": 1939,
      "peuingat": 1940,
      "##eungoh": 1941,
      "syeh": 1942,
      "komdian": 1943,
      "singk": 1944,
      "##euntee": 1945,
      "ceud": 1946,
      "dh": 1947,
      "say": 1948,
      "tuk": 1949,
      "##yak": 1950,
      "##unt": 1951,
      "geutanjoe": 1952,
      "##asien": 1953,
      "seulaen": 1954,
      "amer": 1955,
      "##tiep": 1956,
      "bala": 1957,
      "tieptiep": 1958,
      "bh": 1959,
      "mad": 1960,
      "sw": 1961,
      "sajan": 1962,
      "##bo": 1963,
      "jino": 1964,
      "##aid": 1965,
      "##ayan": 1966,
      "##ajat": 1967,
      "##ajaran": 1968,
      "##euki": 1969,
      "seucara": 1970,
      "##apan": 1971,
      "##agang": 1972,
      "alm": 1973,
      "geupeudong": 1974,
      "syari": 1975,
      "jipeut": 1976,
      "utama": 1977,
      "serangga": 1978,
      "hal": 1979,
      "ir": 1980,
      "ran": 1981,
      "samb": 1982,
      "##bb": 1983,
      "##euhu": 1984,
      "##ilah": 1985,
      "geutuleh": 1986,
      "trieng": 1987,
      "ass": 1988,
      "keuhai": 1989,
      "##tron": 1990,
      "teutab": 1991,
      "sunat": 1992,
      "filipina": 1993,
      "beuh": 1994,
      "goe": 1995,
      "tari": 1996,
      "##jo": 1997,
      "jiek": 1998,
      "##alog": 1999,
      "ant": 2000,
      "syit": 2001,
      "karu": 2002,
      "china": 2003,
      "pusaka": 2004,
      "##eujid": 2005,
      "rasulullah": 2006,
      "spesies": 2007,
      "pisang": 2008,
      "gasien": 2009,
      "te": 2010,
      "##fi": 2011,
      "keurija": 2012,
      "prak": 2013,
      "geuturi": 2014,
      "teungeut": 2015,
      "binoe": 2016,
      "kuasa": 2017,
      "jiba": 2018,
      "bijeh": 2019,
      "imum": 2020,
      "media": 2021,
      "kulet": 2022,
      "syarat": 2023,
      "langsong": 2024,
      "amerika": 2025,
      "dji": 2026,
      "jeuoh": 2027,
      "teng": 2028,
      "tand": 2029,
      "viet": 2030,
      "##jata": 2031,
      "meugah": 2032,
      "seug": 2033,
      "##acut": 2034,
      "peuepeue": 2035,
      "peny": 2036,
      "biram": 2037,
      "dir": 2038,
      "gaseng": 2039,
      "hik": 2040,
      "him": 2041,
      "os": 2042,
      "##cut": 2043,
      "##aneuk": 2044,
      "meujak": 2045,
      "sabee": 2046,
      "##eumang": 2047,
      "##eubit": 2048,
      "droegeuh": 2049,
      "meulayu": 2050,
      "umar": 2051,
      "simp": 2052,
      "vietnam": 2053,
      "hi": 2054,
      "hudep": 2055,
      "plueng": 2056,
      "sinoe": 2057,
      "teudong": 2058,
      "hanjeuet": 2059,
      "##okan": 2060,
      "seung": 2061,
      "##apu": 2062,
      "##upa": 2063,
      "##iran": 2064,
      "##ist": 2065,
      "bandar": 2066,
      "asay": 2067,
      "raksasa": 2068,
      "muang": 2069,
      "sampe": 2070,
      "meukeusud": 2071,
      "sigra": 2072,
      "neukheun": 2073,
      "bong": 2074,
      "dak": 2075,
      "did": 2076,
      "gajah": 2077,
      "##jang": 2078,
      "##cah": 2079,
      "##ania": 2080,
      "##ekan": 2081,
      "seudang": 2082,
      "seujarah": 2083,
      "meunang": 2084,
      "##oran": 2085,
      "peunajoh": 2086,
      "keubit": 2087,
      "gadeng": 2088,
      "disinan": 2089,
      "jideungo": 2090,
      "##unyok": 2091,
      "jagong": 2092,
      "pin": 2093,
      "##uj": 2094,
      "##uih": 2095,
      "##mi": 2096,
      "meuy": 2097,
      "teuingat": 2098,
      "peuget": 2099,
      "##eutoh": 2100,
      "##eumeu": 2101,
      "alq": 2102,
      "##eubot": 2103,
      "tujuan": 2104,
      "malem": 2105,
      "makjih": 2106,
      "##atif": 2107,
      "siploh": 2108,
      "itam": 2109,
      "tacok": 2110,
      "jadeh": 2111,
      "des": 2112,
      "sc": 2113,
      "sek": 2114,
      "tingkat": 2115,
      "##lo": 2116,
      "##anga": 2117,
      "##allah": 2118,
      "kaj": 2119,
      "##otan": 2120,
      "the": 2121,
      "meunoe": 2122,
      "##idikan": 2123,
      "tug": 2124,
      "##oder": 2125,
      "meusapat": 2126,
      "darat": 2127,
      "else": 2128,
      "peulandoek": 2129,
      "##vier": 2130,
      "elsevier": 2131,
      "koen": 2132,
      "raj": 2133,
      "##pe": 2134,
      "##gn": 2135,
      "##ren": 2136,
      "jij": 2137,
      "##asil": 2138,
      "##ume": 2139,
      "##ism": 2140,
      "##est": 2141,
      "##eurimong": 2142,
      "die": 2143,
      "saleuem": 2144,
      "seulaw": 2145,
      "komun": 2146,
      "blanda": 2147,
      "beuta": 2148,
      "geudukong": 2149,
      "beureueh": 2150,
      "troek": 2151,
      "duwa": 2152,
      "orang": 2153,
      "##pr": 2154,
      "##lm": 2155,
      "##go": 2156,
      "##tok": 2157,
      "##cak": 2158,
      "##akek": 2159,
      "##emen": 2160,
      "##istr": 2161,
      "meuseujid": 2162,
      "paleh": 2163,
      "##jaran": 2164,
      "ihee": 2165,
      "rimba": 2166,
      "meuceue": 2167,
      "pungo": 2168,
      "janji": 2169,
      "tuwanku": 2170,
      "ge": 2171,
      "hid": 2172,
      "koh": 2173,
      "lab": 2174,
      "pot": 2175,
      "popul": 2176,
      "sm": 2177,
      "vid": 2178,
      "##uga": 2179,
      "##guna": 2180,
      "##heuh": 2181,
      "##rika": 2182,
      "##zem": 2183,
      "jieh": 2184,
      "##asajih": 2185,
      "saba": 2186,
      "##ikasi": 2187,
      "##aguen": 2188,
      "##ublik": 2189,
      "awan": 2190,
      "geubantu": 2191,
      "jiteubiet": 2192,
      "perjuangan": 2193,
      "padang": 2194,
      "ahmad": 2195,
      "ceudah": 2196,
      "ha": 2197,
      "jeur": 2198,
      "mes": 2199,
      "##thai": 2200,
      "##ww": 2201,
      "##saboh": 2202,
      "##ban": 2203,
      "##mud": 2204,
      "##araja": 2205,
      "##ayi": 2206,
      "ata": 2207,
      "presi": 2208,
      "##ibat": 2209,
      "##ibee": 2210,
      "##eumat": 2211,
      "tueng": 2212,
      "syek": 2213,
      "manteng": 2214,
      "muzak": 2215,
      "ujeuen": 2216,
      "sjit": 2217,
      "rhot": 2218,
      "afrika": 2219,
      "teknologi": 2220,
      "negara": 2221,
      "muangthai": 2222,
      "em": 2223,
      "for": 2224,
      "leuen": 2225,
      "mou": 2226,
      "mulia": 2227,
      "##oc": 2228,
      "##yo": 2229,
      "##yik": 2230,
      "sie": 2231,
      "teud": 2232,
      "##iri": 2233,
      "geupeunan": 2234,
      "syik": 2235,
      "mantoeng": 2236,
      "indra": 2237,
      "indatu": 2238,
      "geubeudoh": 2239,
      "meulatang": 2240,
      "eks": 2241,
      "jipajoh": 2242,
      "talo": 2243,
      "tadeungo": 2244,
      "generasi": 2245,
      "fadlon": 2246,
      "jambo": 2247,
      "beudoh": 2248,
      "gara": 2249,
      "##uu": 2250,
      "##lat": 2251,
      "##leh": 2252,
      "##lawan": 2253,
      "##gol": 2254,
      "##ouh": 2255,
      "jic": 2256,
      "##aju": 2257,
      "khanduri": 2258,
      "##ida": 2259,
      "geupula": 2260,
      "admin": 2261,
      "sigoe": 2262,
      "jamee": 2263,
      "meuprang": 2264,
      "token": 2265,
      "untok": 2266,
      "ploh": 2267,
      "doa": 2268,
      "bil": 2269,
      "com": 2270,
      "ip": 2271,
      "jeul": 2272,
      "mun": 2273,
      "nasional": 2274,
      "pur": 2275,
      "seb": 2276,
      "##lak": 2277,
      "##lih": 2278,
      "##kw": 2279,
      "##mandum": 2280,
      "##cit": 2281,
      "##feuet": 2282,
      "keujadian": 2283,
      "kajeut": 2284,
      "##ersi": 2285,
      "analog": 2286,
      "seumangat": 2287,
      "takheun": 2288,
      "hareuem": 2289,
      "##grak": 2290,
      "bantu": 2291,
      "keulhee": 2292,
      "tulong": 2293,
      "teubiet": 2294,
      "kawasan": 2295,
      "rhet": 2296,
      "teurimong": 2297,
      "gay": 2298,
      "lok": 2299,
      "mo": 2300,
      "taw": 2301,
      "##bat": 2302,
      "##boh": 2303,
      "##ompok": 2304,
      "##adj": 2305,
      "##adisi": 2306,
      "##irin": 2307,
      "meuninggai": 2308,
      "bahan": 2309,
      "kontr": 2310,
      "jipoh": 2311,
      "##osan": 2312,
      "jibeudoh": 2313,
      "##eusoe": 2314,
      "pasokan": 2315,
      "miseu": 2316,
      "contoh": 2317,
      "dok": 2318,
      "djak": 2319,
      "hr": 2320,
      "lump": 2321,
      "niet": 2322,
      "##of": 2323,
      "##hana": 2324,
      "##men": 2325,
      "lazem": 2326,
      "trans": 2327,
      "neus": 2328,
      "manoe": 2329,
      "pemimpin": 2330,
      "muslim": 2331,
      "simeul": 2332,
      "tuanku": 2333,
      "neupeugah": 2334,
      "langet": 2335,
      "##oyek": 2336,
      "raseuki": 2337,
      "ukeue": 2338,
      "neubri": 2339,
      "semoga": 2340,
      "butoi": 2341,
      "laten": 2342,
      "presiden": 2343,
      "muzakir": 2344,
      "az": 2345,
      "bent": 2346,
      "gar": 2347,
      "holl": 2348,
      "ki": 2349,
      "kisah": 2350,
      "lum": 2351,
      "tit": 2352,
      "wa": 2353,
      "##ge": 2354,
      "##fah": 2355,
      "##abeh": 2356,
      "ngui": 2357,
      "##ulong": 2358,
      "aleh": 2359,
      "##ele": 2360,
      "tradisi": 2361,
      "lont": 2362,
      "male": 2363,
      "taman": 2364,
      "geuhnyan": 2365,
      "teutapi": 2366,
      "sjeikh": 2367,
      "sumatera": 2368,
      "modern": 2369,
      "politik": 2370,
      "simeulue": 2371,
      "co": 2372,
      "det": 2373,
      "kop": 2374,
      "tanyo": 2375,
      "yat": 2376,
      "##uy": 2377,
      "##coder": 2378,
      "meuri": 2379,
      "##euep": 2380,
      "##ensi": 2381,
      "hanjeut": 2382,
      "##eukah": 2383,
      "##apa": 2384,
      "proses": 2385,
      "lagak": 2386,
      "paneuk": 2387,
      "geudong": 2388,
      "bonggol": 2389,
      "hah": 2390,
      "hon": 2391,
      "pbb": 2392,
      "reul": 2393,
      "##lee": 2394,
      "##eugah": 2395,
      "##asai": 2396,
      "##ulee": 2397,
      "##nyang": 2398,
      "##ageuh": 2399,
      "kha": 2400,
      "droekeuh": 2401,
      "meurasa": 2402,
      "takue": 2403,
      "anggot": 2404,
      "guru": 2405,
      "##onton": 2406,
      "ukeu": 2407,
      "ruslan": 2408,
      "pande": 2409,
      "dangd": 2410,
      "administr": 2411,
      "bend": 2412,
      "reun": 2413,
      "sant": 2414,
      "tai": 2415,
      "##au": 2416,
      "##kap": 2417,
      "peusi": 2418,
      "##sis": 2419,
      "##anggroe": 2420,
      "abus": 2421,
      "jitanyong": 2422,
      "##angke": 2423,
      "deungoe": 2424,
      "meuhat": 2425,
      "tatuleh": 2426,
      "syarikat": 2427,
      "melayu": 2428,
      "makmu": 2429,
      "bungkok": 2430,
      "hantom": 2431,
      "anggota": 2432,
      "hij": 2433,
      "jab": 2434,
      "lingk": 2435,
      "mand": 2436,
      "##hal": 2437,
      "##cu": 2438,
      "sabirin": 2439,
      "##adap": 2440,
      "##eutah": 2441,
      "banmandum": 2442,
      "malaka": 2443,
      "arah": 2444,
      "meriah": 2445,
      "muphom": 2446,
      "beude": 2447,
      "simpang": 2448,
      "ajaran": 2449,
      "ef": 2450,
      "kri": 2451,
      "set": 2452,
      "tung": 2453,
      "##rap": 2454,
      "##coe": 2455,
      "##akna": 2456,
      "nanggro": 2457,
      "meulaen": 2458,
      "ubah": 2459,
      "perhat": 2460,
      "seulama": 2461,
      "jipeul": 2462,
      "utak": 2463,
      "##cien": 2464,
      "jikeumeung": 2465,
      "euntr": 2466,
      "kubu": 2467,
      "internasional": 2468,
      "riwayat": 2469,
      "es": 2470,
      "idin": 2471,
      "jet": 2472,
      "jud": 2473,
      "sad": 2474,
      "yue": 2475,
      "##eeh": 2476,
      "##war": 2477,
      "##iaga": 2478,
      "##bang": 2479,
      "##fik": 2480,
      "##ame": 2481,
      "##ayeue": 2482,
      "##ili": 2483,
      "lagoe": 2484,
      "tuwo": 2485,
      "meunankeuh": 2486,
      "geupajoh": 2487,
      "##eder": 2488,
      "meusy": 2489,
      "geumat": 2490,
      "geudeungoe": 2491,
      "leumoh": 2492,
      "##eugat": 2493,
      "miny": 2494,
      "##quot": 2495,
      "geupeuleumah": 2496,
      "murid": 2497,
      "jaweub": 2498,
      "##ultas": 2499,
      "gayo": 2500,
      "dangdeunak": 2501,
      "keh": 2502,
      "li": 2503,
      "lingka": 2504,
      "rangk": 2505,
      "sus": 2506,
      "##nah": 2507,
      "##gh": 2508,
      "##ial": 2509,
      "##ehat": 2510,
      "##alo": 2511,
      "kag": 2512,
      "kapeugah": 2513,
      "##itan": 2514,
      "##ajoeh": 2515,
      "##ima": 2516,
      "##ilai": 2517,
      "##opus": 2518,
      "##irat": 2519,
      "geupeup": 2520,
      "geupeub": 2521,
      "uloen": 2522,
      "##aceh": 2523,
      "##kuasa": 2524,
      "##angkan": 2525,
      "ism": 2526,
      "pert": 2527,
      "keunarang": 2528,
      "sigom": 2529,
      "ayahjih": 2530,
      "##egi": 2531,
      "bantuan": 2532,
      "keuluarga": 2533,
      "geupeuteubiet": 2534,
      "mukim": 2535,
      "samudra": 2536,
      "tutong": 2537,
      "fakultas": 2538,
      "populasi": 2539,
      "ayat": 2540,
      "gamba": 2541,
      "kan": 2542,
      "manga": 2543,
      "piyoh": 2544,
      "ru": 2545,
      "ret": 2546,
      "roet": 2547,
      "rug": 2548,
      "radi": 2549,
      "tp": 2550,
      "##son": 2551,
      "##aho": 2552,
      "meupeu": 2553,
      "##antung": 2554,
      "anek": 2555,
      "pruet": 2556,
      "##anggang": 2557,
      "geupike": 2558,
      "geubloe": 2559,
      "brok": 2560,
      "nanjih": 2561,
      "pakek": 2562,
      "kaleuh": 2563,
      "##chik": 2564,
      "pahlawan": 2565,
      "ilme": 2566,
      "rahmat": 2567,
      "bener": 2568,
      "jumeulah": 2569,
      "##ttp": 2570,
      "hollanda": 2571,
      "dih": 2572,
      "guda": 2573,
      "kode": 2574,
      "lint": 2575,
      "leugat": 2576,
      "nus": 2577,
      "peh": 2578,
      "pil": 2579,
      "ra": 2580,
      "red": 2581,
      "##kri": 2582,
      "##ateh": 2583,
      "geuek": 2584,
      "##aban": 2585,
      "keug": 2586,
      "keupeu": 2587,
      "##eed": 2588,
      "##agu": 2589,
      "##eutoi": 2590,
      "bahpih": 2591,
      "meutuwah": 2592,
      "kaphe": 2593,
      "kali": 2594,
      "angg": 2595,
      "keumeung": 2596,
      "panton": 2597,
      "ikot": 2598,
      "mubagoe": 2599,
      "seutot": 2600,
      "pendidikan": 2601,
      "kuneng": 2602,
      "seugolom": 2603,
      "video": 2604,
      "perhatian": 2605,
      "cap": 2606,
      "dep": 2607,
      "dasar": 2608,
      "et": 2609,
      "gab": 2610,
      "juli": 2611,
      "neul": 2612,
      "ot": 2613,
      "wie": 2614,
      "##lek": 2615,
      "##land": 2616,
      "##ae": 2617,
      "##hen": 2618,
      "##sk": 2619,
      "keus": 2620,
      "##adat": 2621,
      "##euti": 2622,
      "proyek": 2623,
      "aleuh": 2624,
      "trang": 2625,
      "baroeh": 2626,
      "##oena": 2627,
      "geupubuet": 2628,
      "meuteumeung": 2629,
      "seulat": 2630,
      "##rahim": 2631,
      "##greb": 2632,
      "aktor": 2633,
      "keulayi": 2634,
      "sibak": 2635,
      "##anjut": 2636,
      "polem": 2637,
      "langsa": 2638,
      "menyo": 2639,
      "tarek": 2640,
      "bude": 2641,
      "sejarah": 2642,
      "belanda": 2643,
      "kelompok": 2644,
      "operasi": 2645,
      "scopus": 2646,
      "cat": 2647,
      "dgn": 2648,
      "ger": 2649,
      "mum": 2650,
      "no": 2651,
      "nkri": 2652,
      "pes": 2653,
      "publoe": 2654,
      "tant": 2655,
      "tib": 2656,
      "##lok": 2657,
      "##kon": 2658,
      "##har": 2659,
      "##dul": 2660,
      "##air": 2661,
      "##ade": 2662,
      "##utoe": 2663,
      "##unang": 2664,
      "geupeuget": 2665,
      "geutamong": 2666,
      "rumania": 2667,
      "jitem": 2668,
      "karak": 2669,
      "maul": 2670,
      "geukirem": 2671,
      "jibri": 2672,
      "tieb": 2673,
      "musem": 2674,
      "kakeuh": 2675,
      "sireuta": 2676,
      "kolon": 2677,
      "administrasi": 2678,
      "ismail": 2679,
      "gog": 2680,
      "lah": 2681,
      "peg": 2682,
      "##http": 2683,
      "##vol": 2684,
      "##jinoe": 2685,
      "keulom": 2686,
      "sis": 2687,
      "##ilu": 2688,
      "##ilan": 2689,
      "alham": 2690,
      "##khianat": 2691,
      "ubena": 2692,
      "pungg": 2693,
      "mekkah": 2694,
      "manyak": 2695,
      "hikayat": 2696,
      "alquran": 2697,
      "yatim": 2698,
      "keulompok": 2699,
      "aulia": 2700,
      "boeh": 2701,
      "iel": 2702,
      "jen": 2703,
      "mam": 2704,
      "reus": 2705,
      "romb": 2706,
      "san": 2707,
      "ts": 2708,
      "yam": 2709,
      "##ueh": 2710,
      "##per": 2711,
      "##nal": 2712,
      "##keu": 2713,
      "##iyah": 2714,
      "##bar": 2715,
      "##balang": 2716,
      "##zah": 2717,
      "##euhei": 2718,
      "##adu": 2719,
      "##utub": 2720,
      "geupeug": 2721,
      "##ola": 2722,
      "kont": 2723,
      "geumita": 2724,
      "ile": 2725,
      "umat": 2726,
      "peutimang": 2727,
      "teuntang": 2728,
      "peumeurintah": 2729,
      "gleh": 2730,
      "rupari": 2731,
      "bideueng": 2732,
      "teulheueh": 2733,
      "delat": 2734,
      "rukon": 2735,
      "hubongan": 2736,
      "bendera": 2737,
      "karakter": 2738,
      "golom": 2739,
      "luah": 2740,
      "rek": 2741,
      "sok": 2742,
      "vol": 2743,
      "##eih": 2744,
      "##oeu": 2745,
      "##kk": 2746,
      "##jalan": 2747,
      "##ektif": 2748,
      "##ihan": 2749,
      "tho": 2750,
      "##ampok": 2751,
      "ule": 2752,
      "asli": 2753,
      "syeikh": 2754,
      "geupeuh": 2755,
      "brbr": 2756,
      "##truk": 2757,
      "sigam": 2758,
      "sukses": 2759,
      "kuliah": 2760,
      "ilmiah": 2761,
      "meumakna": 2762,
      "horor": 2763,
      "lokal": 2764,
      "jabatan": 2765,
      "##volusi": 2766,
      "cuba": 2767,
      "erop": 2768,
      "hoe": 2769,
      "kong": 2770,
      "kil": 2771,
      "yan": 2772,
      "##njan": 2773,
      "##that": 2774,
      "##sang": 2775,
      "##seum": 2776,
      "##jam": 2777,
      "##jit": 2778,
      "##caya": 2779,
      "nyangka": 2780,
      "teumakot": 2781,
      "khali": 2782,
      "##euli": 2783,
      "salam": 2784,
      "karna": 2785,
      "seulamat": 2786,
      "keudee": 2787,
      "kapit": 2788,
      "penjajah": 2789,
      "sikureueng": 2790,
      "sulotan": 2791,
      "teupeue": 2792,
      "lapan": 2793,
      "wateenyan": 2794,
      "bube": 2795,
      "abusyik": 2796,
      "euntreuk": 2797,
      "dat": 2798,
      "dom": 2799,
      "hus": 2800,
      "iz": 2801,
      "ja": 2802,
      "mul": 2803,
      "pir": 2804,
      "pabr": 2805,
      "##oa": 2806,
      "##kat": 2807,
      "##wat": 2808,
      "##sah": 2809,
      "##aro": 2810,
      "##eek": 2811,
      "siny": 2812,
      "teuduek": 2813,
      "##ulan": 2814,
      "nagan": 2815,
      "hanale": 2816,
      "##adah": 2817,
      "##emat": 2818,
      "##antara": 2819,
      "tron": 2820,
      "aseuli": 2821,
      "meutuleh": 2822,
      "meulaboh": 2823,
      "jipiyoh": 2824,
      "utk": 2825,
      "beuthat": 2826,
      "suci": 2827,
      "udeb": 2828,
      "drama": 2829,
      "##rakan": 2830,
      "menyoe": 2831,
      "euncien": 2832,
      "mukh": 2833,
      "republik": 2834,
      "assalam": 2835,
      "rombongan": 2836,
      "cer": 2837,
      "hy": 2838,
      "ier": 2839,
      "kud": 2840,
      "log": 2841,
      "mong": 2842,
      "nal": 2843,
      "pag": 2844,
      "rueng": 2845,
      "ses": 2846,
      "sumb": 2847,
      "tel": 2848,
      "tungk": 2849,
      "wahe": 2850,
      "##osi": 2851,
      "kaf": 2852,
      "kapeu": 2853,
      "nag": 2854,
      "##ite": 2855,
      "##eunoe": 2856,
      "##ileueng": 2857,
      "malek": 2858,
      "kamo": 2859,
      "meusaboh": 2860,
      "meuhub": 2861,
      "karab": 2862,
      "##troh": 2863,
      "tamat": 2864,
      "buleun": 2865,
      "haraih": 2866,
      "undang": 2867,
      "glayang": 2868,
      "kawe": 2869,
      "ibrahim": 2870,
      "##jadi": 2871,
      "nyakni": 2872,
      "##jaht": 2873,
      "##aikum": 2874,
      "pikeran": 2875,
      "href": 2876,
      "maulana": 2877,
      "eropa": 2878,
      "fir": 2879,
      "qu": 2880,
      "qur": 2881,
      "sos": 2882,
      "ucok": 2883,
      "wab": 2884,
      "yak": 2885,
      "##ec": 2886,
      "##ow": 2887,
      "##aksi": 2888,
      "geusi": 2889,
      "##eri": 2890,
      "##ukoe": 2891,
      "and": 2892,
      "aloh": 2893,
      "neug": 2894,
      "meuteume": 2895,
      "breueh": 2896,
      "perm": 2897,
      "adek": 2898,
      "pakri": 2899,
      "pengembang": 2900,
      "peulara": 2901,
      "uleebalang": 2902,
      "singa": 2903,
      "bayeuen": 2904,
      "politek": 2905,
      "minyeuk": 2906,
      "gogasi": 2907,
      "##oeuroe": 2908,
      "hrefhttp": 2909,
      "aj": 2910,
      "bog": 2911,
      "cinta": 2912,
      "dada": 2913,
      "gaseh": 2914,
      "hn": 2915,
      "lu": 2916,
      "lik": 2917,
      "mut": 2918,
      "mubuet": 2919,
      "reubah": 2920,
      "wis": 2921,
      "##ll": 2922,
      "##gia": 2923,
      "##zal": 2924,
      "##cana": 2925,
      "##atoe": 2926,
      "##ona": 2927,
      "##roeh": 2928,
      "##oto": 2929,
      "urueng": 2930,
      "##orit": 2931,
      "geumeu": 2932,
      "geukeubah": 2933,
      "mend": 2934,
      "jimeu": 2935,
      "musoh": 2936,
      "pasai": 2937,
      "##ussaleh": 2938,
      "peusangan": 2939,
      "hukoem": 2940,
      "skula": 2941,
      "malikussaleh": 2942,
      "beusoe": 2943,
      "lingkungan": 2944,
      "eseuk": 2945,
      "rugoe": 2946,
      "ieleume": 2947,
      "##seumawe": 2948,
      "cangg": 2949,
      "cor": 2950,
      "doe": 2951,
      "deh": 2952,
      "dek": 2953,
      "dlm": 2954,
      "hel": 2955,
      "kama": 2956,
      "mamp": 2957,
      "nik": 2958,
      "##heuet": 2959,
      "##di": 2960,
      "##res": 2961,
      "##jara": 2962,
      "meuah": 2963,
      "jidong": 2964,
      "ladang": 2965,
      "##andang": 2966,
      "##emp": 2967,
      "##ampu": 2968,
      "inoeng": 2969,
      "meuniaga": 2970,
      "meulaka": 2971,
      "meurantoe": 2972,
      "peureud": 2973,
      "perangkat": 2974,
      "putri": 2975,
      "massa": 2976,
      "geumeuk": 2977,
      "ileumee": 2978,
      "beug": 2979,
      "kueh": 2980,
      "tapeugot": 2981,
      "lageenyan": 2982,
      "iheuh": 2983,
      "##mada": 2984,
      "sunda": 2985,
      "beukuem": 2986,
      "kadhi": 2987,
      "dame": 2988,
      "poma": 2989,
      "teukeujet": 2990,
      "syariat": 2991,
      "nusantara": 2992,
      "alhamdul": 2993,
      "punggong": 2994,
      "reusam": 2995,
      "izin": 2996,
      "bogor": 2997,
      "eseukanda": 2998,
      "ceur": 2999,
      "jangka": 3000,
      "lub": 3001,
      "pt": 3002,
      "tob": 3003,
      "##hoe": 3004,
      "##bit": 3005,
      "##rek": 3006,
      "##jong": 3007,
      "##eksi": 3008,
      "##adang": 3009,
      "##apah": 3010,
      "##ungsi": 3011,
      "geupeuduek": 3012,
      "##anaf": 3013,
      "pengkhianat": 3014,
      "hareuta": 3015,
      "bukti": 3016,
      "jiboh": 3017,
      "pidato": 3018,
      "keumah": 3019,
      "pocut": 3020,
      "ibn": 3021,
      "intat": 3022,
      "selatan": 3023,
      "ide": 3024,
      "hindu": 3025,
      "youtub": 3026,
      "cocok": 3027,
      "volume": 3028,
      "beda": 3029,
      "gos": 3030,
      "hom": 3031,
      "ideh": 3032,
      "kuk": 3033,
      "kanto": 3034,
      "seuk": 3035,
      "wak": 3036,
      "##ey": 3037,
      "##uasa": 3038,
      "##let": 3039,
      "##laen": 3040,
      "##cang": 3041,
      "##cong": 3042,
      "##anco": 3043,
      "##all": 3044,
      "kaoy": 3045,
      "##aikan": 3046,
      "##ulak": 3047,
      "##eunong": 3048,
      "##andeng": 3049,
      "##ampoe": 3050,
      "##antan": 3051,
      "##eutot": 3052,
      "##unami": 3053,
      "##ilitas": 3054,
      "geuteupeu": 3055,
      "##amaah": 3056,
      "bruek": 3057,
      "perp": 3058,
      "bert": 3059,
      "pham": 3060,
      "peunula": 3061,
      "panik": 3062,
      "##egeuh": 3063,
      "meudukong": 3064,
      "##uroet": 3065,
      "beukah": 3066,
      "jeumpa": 3067,
      "hamid": 3068,
      "khusus": 3069,
      "konser": 3070,
      "ay": 3071,
      "gat": 3072,
      "gel": 3073,
      "hu": 3074,
      "hajat": 3075,
      "leu": 3076,
      "lale": 3077,
      "seuh": 3078,
      "sungg": 3079,
      "wah": 3080,
      "##tu": 3081,
      "##kawi": 3082,
      "##reb": 3083,
      "##xi": 3084,
      "##oei": 3085,
      "##aru": 3086,
      "kawoe": 3087,
      "##aian": 3088,
      "hand": 3089,
      "##ampa": 3090,
      "uleu": 3091,
      "bansi": 3092,
      "aseng": 3093,
      "##khem": 3094,
      "meulakee": 3095,
      "peurt": 3096,
      "meukeumang": 3097,
      "##inggu": 3098,
      "patah": 3099,
      "##ambong": 3100,
      "udeueng": 3101,
      "##entasi": 3102,
      "katrok": 3103,
      "##oyama": 3104,
      "standar": 3105,
      "kec": 3106,
      "syarkawi": 3107,
      "meusidroe": 3108,
      "kureung": 3109,
      "keluarga": 3110,
      "organ": 3111,
      "singke": 3112,
      "dakwah": 3113,
      "##isme": 3114,
      "##kwkw": 3115,
      "pabrek": 3116,
      "mukhlih": 3117,
      "youtube": 3118,
      "bai": 3119,
      "beum": 3120,
      "dapu": 3121,
      "hur": 3122,
      "hinan": 3123,
      "iku": 3124,
      "mi": 3125,
      "manaf": 3126,
      "pek": 3127,
      "rat": 3128,
      "##pak": 3129,
      "##neuh": 3130,
      "##dj": 3131,
      "##euch": 3132,
      "##sir": 3133,
      "##ukung": 3134,
      "lagei": 3135,
      "##juek": 3136,
      "uroenyoe": 3137,
      "syam": 3138,
      "geubuka": 3139,
      "##oduk": 3140,
      "peurintah": 3141,
      "peurte": 3142,
      "keuneubah": 3143,
      "saleum": 3144,
      "##euda": 3145,
      "seuleusoe": 3146,
      "timoh": 3147,
      "tamah": 3148,
      "geukeumeung": 3149,
      "tapubuet": 3150,
      "ramee": 3151,
      "pemilu": 3152,
      "beurans": 3153,
      "##alaman": 3154,
      "desa": 3155,
      "uni": 3156,
      "tabaca": 3157,
      "##ember": 3158,
      "rizal": 3159,
      "lapisan": 3160,
      "kuril": 3161,
      "##likasi": 3162,
      "suboh": 3163,
      "eunt": 3164,
      "useuha": 3165,
      "sosi": 3166,
      "ampon": 3167,
      "tikoh": 3168,
      "##ustaka": 3169,
      "swt": 3170,
      "aoyama": 3171,
      "bas": 3172,
      "cong": 3173,
      "dri": 3174,
      "iman": 3175,
      "kum": 3176,
      "lun": 3177,
      "mit": 3178,
      "ren": 3179,
      "sop": 3180,
      "teh": 3181,
      "##tik": 3182,
      "##macam": 3183,
      "##jud": 3184,
      "##fat": 3185,
      "##ator": 3186,
      "##art": 3187,
      "jijok": 3188,
      "##ulok": 3189,
      "##peun": 3190,
      "##awat": 3191,
      "##apura": 3192,
      "##eutan": 3193,
      "inf": 3194,
      "geuteurimong": 3195,
      "##ingga": 3196,
      "##asia": 3197,
      "##eurunoe": 3198,
      "geupimpin": 3199,
      "##angkot": 3200,
      "##haf": 3201,
      "perk": 3202,
      "ade": 3203,
      "##umpah": 3204,
      "##eudi": 3205,
      "geumeul": 3206,
      "aplikasi": 3207,
      "bukoen": 3208,
      "##entah": 3209,
      "tokoh": 3210,
      "##acammacam": 3211,
      "dengki": 3212,
      "tangui": 3213,
      "pupok": 3214,
      "geuseumurat": 3215,
      "tukang": 3216,
      "syeki": 3217,
      "detektif": 3218,
      "radio": 3219,
      "tantra": 3220,
      "tsunami": 3221,
      "mongol": 3222,
      "sosah": 3223,
      "cangguek": 3224,
      "alhamdulillah": 3225,
      "gosho": 3226,
      "perpustaka": 3227,
      "beuransah": 3228,
      "perpustakaan": 3229,
      "bur": 3230,
      "beb": 3231,
      "conan": 3232,
      "du": 3233,
      "he": 3234,
      "ijak": 3235,
      "kegi": 3236,
      "leung": 3237,
      "pub": 3238,
      "pint": 3239,
      "pimp": 3240,
      "ten": 3241,
      "tong": 3242,
      "##uc": 3243,
      "##sin": 3244,
      "##bi": 3245,
      "##buet": 3246,
      "##ray": 3247,
      "##eurija": 3248,
      "keuieng": 3249,
      "##alee": 3250,
      "##alia": 3251,
      "teupat": 3252,
      "anak": 3253,
      "##eump": 3254,
      "##ubiet": 3255,
      "inform": 3256,
      "##eubok": 3257,
      "##ela": 3258,
      "ulang": 3259,
      "syiah": 3260,
      "pulang": 3261,
      "pake": 3262,
      "pakoen": 3263,
      "kreuh": 3264,
      "pateh": 3265,
      "haram": 3266,
      "jimita": 3267,
      "sipot": 3268,
      "djawa": 3269,
      "tuleueng": 3270,
      "teubai": 3271,
      "##ungkenkan": 3272,
      "rusli": 3273,
      "kutaraja": 3274,
      "sidara": 3275,
      "eumpeuen": 3276,
      "upah": 3277,
      "lontuan": 3278,
      "##ederhana": 3279,
      "tungkat": 3280,
      "mamplam": 3281,
      "kegiatan": 3282,
      "ed": 3283,
      "gantoe": 3284,
      "hawa": 3285,
      "jeuh": 3286,
      "jer": 3287,
      "mag": 3288,
      "puwoe": 3289,
      "res": 3290,
      "sat": 3291,
      "tany": 3292,
      "zain": 3293,
      "##plueng": 3294,
      "##phon": 3295,
      "##groe": 3296,
      "##wak": 3297,
      "##amana": 3298,
      "jing": 3299,
      "peudong": 3300,
      "##sing": 3301,
      "seudeh": 3302,
      "##ampoh": 3303,
      "nyoekeuh": 3304,
      "##agee": 3305,
      "anco": 3306,
      "##und": 3307,
      "prof": 3308,
      "##usaha": 3309,
      "abi": 3310,
      "##ebat": 3311,
      "rump": 3312,
      "meututoe": 3313,
      "meuhar": 3314,
      "karya": 3315,
      "matemat": 3316,
      "jaringan": 3317,
      "batak": 3318,
      "jimeuen": 3319,
      "tapileh": 3320,
      "kale": 3321,
      "game": 3322,
      "droeneuhnyan": 3323,
      "leupie": 3324,
      "teunuleh": 3325,
      "sangsang": 3326,
      "laksamana": 3327,
      "komputasi": 3328,
      "seutia": 3329,
      "angkatan": 3330,
      "makmur": 3331,
      "teukeujot": 3332,
      "guni": 3333,
      "ranup": 3334,
      "format": 3335,
      "administrasijih": 3336,
      "asa": 3337,
      "bk": 3338,
      "bangk": 3339,
      "cek": 3340,
      "gug": 3341,
      "nep": 3342,
      "of": 3343,
      "oek": 3344,
      "rin": 3345,
      "ratu": 3346,
      "turi": 3347,
      "##oih": 3348,
      "##kubat": 3349,
      "##amoe": 3350,
      "##ini": 3351,
      "##ajak": 3352,
      "##urit": 3353,
      "hanafi": 3354,
      "##isasi": 3355,
      "lonjak": 3356,
      "city": 3357,
      "indoen": 3358,
      "jituri": 3359,
      "perle": 3360,
      "kre": 3361,
      "##uhu": 3362,
      "harah": 3363,
      "buka": 3364,
      "peutheun": 3365,
      "sipai": 3366,
      "tajam": 3367,
      "terj": 3368,
      "geupeutheun": 3369,
      "hukum": 3370,
      "syahkubat": 3371,
      "pukat": 3372,
      "cucoe": 3373,
      "droneuh": 3374,
      "susah": 3375,
      "sumber": 3376,
      "doenya": 3377,
      "informasi": 3378,
      "fungsi": 3379,
      "gas": 3380,
      "hamb": 3381,
      "kek": 3382,
      "memb": 3383,
      "macammacam": 3384,
      "nilai": 3385,
      "sot": 3386,
      "tup": 3387,
      "ueh": 3388,
      "ukh": 3389,
      "versi": 3390,
      "waki": 3391,
      "##bek": 3392,
      "##jal": 3393,
      "##jana": 3394,
      "##jabat": 3395,
      "##akoe": 3396,
      "##abo": 3397,
      "##aloen": 3398,
      "sifeuet": 3399,
      "##ulussalam": 3400,
      "##itek": 3401,
      "##itif": 3402,
      "hanco": 3403,
      "##adoh": 3404,
      "leb": 3405,
      "##awai": 3406,
      "sabohsaboh": 3407,
      "##eumi": 3408,
      "##anya": 3409,
      "geutinggai": 3410,
      "##eubab": 3411,
      "aneukaneuk": 3412,
      "neud": 3413,
      "geupreh": 3414,
      "geupuwoe": 3415,
      "##ayaan": 3416,
      "##eupah": 3417,
      "jipeur": 3418,
      "arti": 3419,
      "umong": 3420,
      "keubah": 3421,
      "seuni": 3422,
      "beulanja": 3423,
      "terk": 3424,
      "sapo": 3425,
      "rupajih": 3426,
      "shalat": 3427,
      "warong": 3428,
      "wareuna": 3429,
      "saho": 3430,
      "subulussalam": 3431,
      "hindia": 3432,
      "lhokseumawe": 3433,
      "tiktok": 3434,
      "khusos": 3435,
      "digit": 3436,
      "kalimantan": 3437,
      "fitur": 3438,
      "tugaih": 3439,
      "peurtama": 3440,
      "indoenesia": 3441,
      "cet": 3442,
      "daw": 3443,
      "dana": 3444,
      "fr": 3445,
      "gal": 3446,
      "gaya": 3447,
      "gagah": 3448,
      "ijo": 3449,
      "kuh": 3450,
      "laloe": 3451,
      "rad": 3452,
      "rhah": 3453,
      "##lin": 3454,
      "##gom": 3455,
      "##tar": 3456,
      "##kara": 3457,
      "##yub": 3458,
      "##rat": 3459,
      "##euga": 3460,
      "##ahah": 3461,
      "aci": 3462,
      "##ule": 3463,
      "##its": 3464,
      "##sik": 3465,
      "urutan": 3466,
      "##uki": 3467,
      "##apai": 3468,
      "##antong": 3469,
      "##uson": 3470,
      "##ileng": 3471,
      "##ubu": 3472,
      "lagoena": 3473,
      "awe": 3474,
      "geuthee": 3475,
      "geutron": 3476,
      "traf": 3477,
      "jitim": 3478,
      "maksi": 3479,
      "keureutah": 3480,
      "tamita": 3481,
      "geuhei": 3482,
      "akhirat": 3483,
      "tapeut": 3484,
      "keumawe": 3485,
      "djroh": 3486,
      "step": 3487,
      "kulam": 3488,
      "maha": 3489,
      "meungnyo": 3490,
      "kerja": 3491,
      "rapai": 3492,
      "fadh": 3493,
      "sinyak": 3494,
      "ceue": 3495,
      "cir": 3496,
      "dem": 3497,
      "dub": 3498,
      "grak": 3499,
      "jal": 3500,
      "ky": 3501,
      "mab": 3502,
      "minggu": 3503,
      "pac": 3504,
      "ro": 3505,
      "tent": 3506,
      "tika": 3507,
      "##soe": 3508,
      "##shu": 3509,
      "##dan": 3510,
      "##ce": 3511,
      "##car": 3512,
      "nyata": 3513,
      "meuubah": 3514,
      "jin": 3515,
      "##alitas": 3516,
      "peujuang": 3517,
      "layan": 3518,
      "thee": 3519,
      "urg": 3520,
      "##utoh": 3521,
      "##antik": 3522,
      "##agama": 3523,
      "##undang": 3524,
      "##ibusi": 3525,
      "geupeuna": 3526,
      "geuteubiet": 3527,
      "droeteuh": 3528,
      "bank": 3529,
      "##eurah": 3530,
      "geupubloe": 3531,
      "jiteumee": 3532,
      "kambo": 3533,
      "peuekeuh": 3534,
      "pengk": 3535,
      "pengguna": 3536,
      "meuhai": 3537,
      "meuheut": 3538,
      "##umpang": 3539,
      "timang": 3540,
      "sigala": 3541,
      "peunoh": 3542,
      "jarak": 3543,
      "uma": 3544,
      "leumb": 3545,
      "##ova": 3546,
      "pangeran": 3547,
      "akad": 3548,
      "akibat": 3549,
      "teukeudi": 3550,
      "meupadum": 3551,
      "meuphom": 3552,
      "eungkoet": 3553,
      "biasajih": 3554,
      "soleutan": 3555,
      "hatee": 3556,
      "untong": 3557,
      "lapuran": 3558,
      "kecamatan": 3559,
      "bajeung": 3560,
      "usman": 3561,
      "punoh": 3562,
      "jawoe": 3563,
      "seni": 3564,
      "eumpang": 3565,
      "insya": 3566,
      "john": 3567,
      "jijaweueb": 3568,
      "ierupa": 3569,
      "naleueng": 3570,
      "naggroe": 3571,
      "##apahit": 3572,
      "seuhingga": 3573,
      "matematika": 3574,
      "trafo": 3575,
      "kamboja": 3576,
      "dal": 3577,
      "gisa": 3578,
      "jep": 3579,
      "nnyang": 3580,
      "pok": 3581,
      "rai": 3582,
      "sas": 3583,
      "tay": 3584,
      "tingk": 3585,
      "wap": 3586,
      "##uoh": 3587,
      "##pi": 3588,
      "##ton": 3589,
      "##ker": 3590,
      "##hok": 3591,
      "##zh": 3592,
      "##mah": 3593,
      "##ck": 3594,
      "##amoeng": 3595,
      "##ash": 3596,
      "##uleuen": 3597,
      "##ajurit": 3598,
      "##sisi": 3599,
      "##urak": 3600,
      "##ureung": 3601,
      "produk": 3602,
      "##usa": 3603,
      "meunuroet": 3604,
      "##idin": 3605,
      "abang": 3606,
      "lhoek": 3607,
      "taala": 3608,
      "geupeuek": 3609,
      "geuplueng": 3610,
      "geupiyoh": 3611,
      "peureum": 3612,
      "haihai": 3613,
      "deungen": 3614,
      "ubiet": 3615,
      "##ungket": 3616,
      "seulangke": 3617,
      "geukeuneuk": 3618,
      "beujeuet": 3619,
      "jimat": 3620,
      "suum": 3621,
      "tip": 3622,
      "drop": 3623,
      "##lip": 3624,
      "parang": 3625,
      "taboh": 3626,
      "saksi": 3627,
      "##anjan": 3628,
      "##dehka": 3629,
      "pejuang": 3630,
      "saud": 3631,
      "imeum": 3632,
      "menye": 3633,
      "dipakek": 3634,
      "rahma": 3635,
      "papua": 3636,
      "rukok": 3637,
      "komplek": 3638,
      "reuny": 3639,
      "meusyeuhu": 3640,
      "kolonial": 3641,
      "desain": 3642,
      "sosial": 3643,
      "digital": 3644,
      "bus": 3645,
      "cm": 3646,
      "cak": 3647,
      "dab": 3648,
      "deuk": 3649,
      "deuek": 3650,
      "hina": 3651,
      "ii": 3652,
      "kos": 3653,
      "lim": 3654,
      "mac": 3655,
      "ni": 3656,
      "rant": 3657,
      "rapat": 3658,
      "sd": 3659,
      "semb": 3660,
      "to": 3661,
      "tni": 3662,
      "yoeh": 3663,
      "##pan": 3664,
      "##lis": 3665,
      "##wang": 3666,
      "##hum": 3667,
      "##cat": 3668,
      "##aken": 3669,
      "##eheh": 3670,
      "##eep": 3671,
      "sij": 3672,
      "##inda": 3673,
      "peup": 3674,
      "##ulah": 3675,
      "##awoe": 3676,
      "##ampong": 3677,
      "alas": 3678,
      "teumuleh": 3679,
      "meunjoe": 3680,
      "geutamah": 3681,
      "##elat": 3682,
      "teungoeh": 3683,
      "bekle": 3684,
      "##eurangkat": 3685,
      "jithee": 3686,
      "padub": 3687,
      "keunira": 3688,
      "jipike": 3689,
      "seulayang": 3690,
      "##eupak": 3691,
      "##trang": 3692,
      "armada": 3693,
      "peulajaran": 3694,
      "kaloen": 3695,
      "pucok": 3696,
      "buya": 3697,
      "meubacut": 3698,
      "gadoeh": 3699,
      "##jaroe": 3700,
      "sulet": 3701,
      "suleng": 3702,
      "turonan": 3703,
      "meugantoe": 3704,
      "imran": 3705,
      "studi": 3706,
      "##ijit": 3707,
      "majapahit": 3708,
      "guha": 3709,
      "amanah": 3710,
      "internet": 3711,
      "jurnal": 3712,
      "lawet": 3713,
      "desya": 3714,
      "mesjid": 3715,
      "hijri": 3716,
      "khalifah": 3717,
      "assalamual": 3718,
      "bata": 3719,
      "cab": 3720,
      "gag": 3721,
      "jula": 3722,
      "ko": 3723,
      "lg": 3724,
      "leub": 3725,
      "pangk": 3726,
      "ped": 3727,
      "paih": 3728,
      "tangk": 3729,
      "van": 3730,
      "##loen": 3731,
      "##tam": 3732,
      "##tis": 3733,
      "##hs": 3734,
      "##sagai": 3735,
      "##dah": 3736,
      "##jat": 3737,
      "##ngon": 3738,
      "##areh": 3739,
      "##enyoe": 3740,
      "##asikan": 3741,
      "##ulai": 3742,
      "##andi": 3743,
      "##uku": 3744,
      "prajurit": 3745,
      "##ustr": 3746,
      "##ubahan": 3747,
      "inov": 3748,
      "##anggap": 3749,
      "ala": 3750,
      "alb": 3751,
      "meunatang": 3752,
      "##istan": 3753,
      "tuwoe": 3754,
      "##eulheueh": 3755,
      "kabeh": 3756,
      "geupr": 3757,
      "makl": 3758,
      "##oda": 3759,
      "seumijit": 3760,
      "menjoe": 3761,
      "##jioh": 3762,
      "ayahwa": 3763,
      "harta": 3764,
      "geuseuot": 3765,
      "pemr": 3766,
      "##hamidah": 3767,
      "bada": 3768,
      "keulai": 3769,
      "meugantung": 3770,
      "simalam": 3771,
      "ujung": 3772,
      "beungong": 3773,
      "elek": 3774,
      "piasan": 3775,
      "alami": 3776,
      "sagaisagai": 3777,
      "jidrop": 3778,
      "encoder": 3779,
      "pahang": 3780,
      "rusa": 3781,
      "bidah": 3782,
      "##aaaa": 3783,
      "jeupun": 3784,
      "geupeurunoe": 3785,
      "peundapat": 3786,
      "peubuet": 3787,
      "kalimat": 3788,
      "bhaih": 3789,
      "reuloh": 3790,
      "##eedara": 3791,
      "lunak": 3792,
      "gugus": 3793,
      "stephen": 3794,
      "cr": 3795,
      "ent": 3796,
      "fisi": 3797,
      "hot": 3798,
      "mee": 3799,
      "mid": 3800,
      "mor": 3801,
      "mangsa": 3802,
      "sov": 3803,
      "yup": 3804,
      "##suk": 3805,
      "##don": 3806,
      "##resi": 3807,
      "##mar": 3808,
      "##jet": 3809,
      "##faat": 3810,
      "##euw": 3811,
      "geueh": 3812,
      "##enan": 3813,
      "##ert": 3814,
      "##iny": 3815,
      "##iter": 3816,
      "##sim": 3817,
      "tha": 3818,
      "meuneuen": 3819,
      "khut": 3820,
      "kheuen": 3821,
      "gobnjan": 3822,
      "##iau": 3823,
      "geubagi": 3824,
      "peuranc": 3825,
      "keuradj": 3826,
      "peulisi": 3827,
      "kujak": 3828,
      "jimeus": 3829,
      "ramlah": 3830,
      "sikrak": 3831,
      "buy": 3832,
      "akhee": 3833,
      "sakti": 3834,
      "##embangan": 3835,
      "peusan": 3836,
      "##abohan": 3837,
      "stat": 3838,
      "inter": 3839,
      "##ancang": 3840,
      "nurhamidah": 3841,
      "kedeh": 3842,
      "sayid": 3843,
      "tande": 3844,
      "pineung": 3845,
      "labuhan": 3846,
      "honshu": 3847,
      "sadar": 3848,
      "##anjutkan": 3849,
      "tibang": 3850,
      "sopan": 3851,
      "rumpuen": 3852,
      "dubai": 3853,
      "layanan": 3854,
      "jeueb": 3855,
      "kantoe": 3856,
      "nikah": 3857,
      "tum": 3858,
      "tag": 3859,
      "top": 3860,
      "wase": 3861,
      "##uha": 3862,
      "##pah": 3863,
      "##hoen": 3864,
      "##bol": 3865,
      "##bacut": 3866,
      "##yu": 3867,
      "##rik": 3868,
      "##vasi": 3869,
      "##meun": 3870,
      "##jroh": 3871,
      "##akm": 3872,
      "geuw": 3873,
      "##ard": 3874,
      "kaji": 3875,
      "saboeh": 3876,
      "##eunajih": 3877,
      "urusan": 3878,
      "##iman": 3879,
      "##ago": 3880,
      "ato": 3881,
      "pred": 3882,
      "##ireng": 3883,
      "lago": 3884,
      "geuteupeue": 3885,
      "##eulee": 3886,
      "jakeuet": 3887,
      "##esan": 3888,
      "##esabe": 3889,
      "geupoh": 3890,
      "meutuah": 3891,
      "##angkadang": 3892,
      "peurang": 3893,
      "berd": 3894,
      "berb": 3895,
      "seumike": 3896,
      "##ogeuh": 3897,
      "##uho": 3898,
      "haroh": 3899,
      "kalheuh": 3900,
      "pugah": 3901,
      "jikeuneuk": 3902,
      "bujang": 3903,
      "must": 3904,
      "pasukan": 3905,
      "meujan": 3906,
      "##ijah": 3907,
      "bida": 3908,
      "kadangkadang": 3909,
      "murah": 3910,
      "pasifik": 3911,
      "hindon": 3912,
      "##ustri": 3913,
      "pembel": 3914,
      "teknik": 3915,
      "meuyup": 3916,
      "##www": 3917,
      "tawoe": 3918,
      "judul": 3919,
      "depok": 3920,
      "##truktur": 3921,
      "likoet": 3922,
      "terjem": 3923,
      "akadem": 3924,
      "raihan": 3925,
      "biet": 3926,
      "cal": 3927,
      "cae": 3928,
      "dee": 3929,
      "jhon": 3930,
      "kp": 3931,
      "lueng": 3932,
      "meg": 3933,
      "om": 3934,
      "pimpin": 3935,
      "ref": 3936,
      "tahe": 3937,
      "zak": 3938,
      "##uai": 3939,
      "##ne": 3940,
      "##aot": 3941,
      "##io": 3942,
      "##sit": 3943,
      "##dak": 3944,
      "##euat": 3945,
      "##ngk": 3946,
      "##oeb": 3947,
      "##asila": 3948,
      "sijarah": 3949,
      "teucok": 3950,
      "ngieng": 3951,
      "##ajar": 3952,
      "sabesabe": 3953,
      "##eungki": 3954,
      "##eute": 3955,
      "##opa": 3956,
      "##eubi": 3957,
      "##orm": 3958,
      "abee": 3959,
      "baren": 3960,
      "baneng": 3961,
      "##ebr": 3962,
      "taeun": 3963,
      "geupakat": 3964,
      "dipat": 3965,
      "pengh": 3966,
      "berg": 3967,
      "jipeus": 3968,
      "utang": 3969,
      "menang": 3970,
      "##ambot": 3971,
      "harap": 3972,
      "bukel": 3973,
      "nangroe": 3974,
      "jime": 3975,
      "sujud": 3976,
      "turuki": 3977,
      "geupeuturi": 3978,
      "peumeur": 3979,
      "jiseuot": 3980,
      "pukoe": 3981,
      "hadiah": 3982,
      "lemb": 3983,
      "kasta": 3984,
      "tahta": 3985,
      "seudjarah": 3986,
      "mekan": 3987,
      "droneh": 3988,
      "##areksa": 3989,
      "peurumohgeuh": 3990,
      "##karu": 3991,
      "tengku": 3992,
      "komunikasi": 3993,
      "rauf": 3994,
      "aleuhat": 3995,
      "pirak": 3996,
      "quot": 3997,
      "bansigom": 3998,
      "##usahaan": 3999,
      "fadhli": 4000,
      "pembelajaran": 4001,
      "austr": 4002,
      "cip": 4003,
      "gol": 4004,
      "hamba": 4005,
      "jun": 4006,
      "kand": 4007,
      "lut": 4008,
      "lip": 4009,
      "maja": 4010,
      "mnt": 4011,
      "pki": 4012,
      "sung": 4013,
      "suka": 4014,
      "ue": 4015,
      "weueh": 4016,
      "##uz": 4017,
      "##peng": 4018,
      "##oib": 4019,
      "##blah": 4020,
      "##rob": 4021,
      "##akah": 4022,
      "meuw": 4023,
      "meuasai": 4024,
      "meuagama": 4025,
      "jiyue": 4026,
      "siam": 4027,
      "bakbak": 4028,
      "##uman": 4029,
      "##ulat": 4030,
      "##itong": 4031,
      "lamit": 4032,
      "##peur": 4033,
      "seuuem": 4034,
      "##araf": 4035,
      "rayeuek": 4036,
      "lhan": 4037,
      "##eulam": 4038,
      "syur": 4039,
      "geubeuet": 4040,
      "meulint": 4041,
      "perubahan": 4042,
      "mugreb": 4043,
      "salib": 4044,
      "jipubuet": 4045,
      "seumah": 4046,
      "karap": 4047,
      "masak": 4048,
      "geumpa": 4049,
      "bulee": 4050,
      "peulabohan": 4051,
      "ummat": 4052,
      "jimeul": 4053,
      "jibantu": 4054,
      "udara": 4055,
      "sipanyang": 4056,
      "bacutbacut": 4057,
      "tulo": 4058,
      "bagaih": 4059,
      "pola": 4060,
      "peukayan": 4061,
      "rijang": 4062,
      "teunaga": 4063,
      "tareh": 4064,
      "binteh": 4065,
      "syahid": 4066,
      "bungoh": 4067,
      "peungaroh": 4068,
      "dikeue": 4069,
      "##umbang": 4070,
      "hadits": 4071,
      "pungoe": 4072,
      "peudeueng": 4073,
      "geunantoe": 4074,
      "punah": 4075,
      "puncak": 4076,
      "ladoem": 4077,
      "memungkenkan": 4078,
      "spesimen": 4079,
      "korban": 4080,
      "hubungan": 4081,
      "manyet": 4082,
      "ranub": 4083,
      "lumpoe": 4084,
      "muslimin": 4085,
      "ruja": 4086,
      "zainal": 4087,
      "mabok": 4088,
      "inovasi": 4089,
      "stephenson": 4090,
      "terjemahan": 4091,
      "aja": 4092,
      "bed": 4093,
      "bos": 4094,
      "cik": 4095,
      "calon": 4096,
      "dun": 4097,
      "dagang": 4098,
      "hain": 4099,
      "iri": 4100,
      "jumat": 4101,
      "leh": 4102,
      "laba": 4103,
      "lge": 4104,
      "mep": 4105,
      "pangkat": 4106,
      "roeh": 4107,
      "reuda": 4108,
      "sangg": 4109,
      "shah": 4110,
      "yus": 4111,
      "##pap": 4112,
      "##lang": 4113,
      "##nat": 4114,
      "##out": 4115,
      "##hasil": 4116,
      "##muda": 4117,
      "##angai": 4118,
      "##ond": 4119,
      "geuatoe": 4120,
      "meuulang": 4121,
      "##aroe": 4122,
      "##arap": 4123,
      "jieu": 4124,
      "##ulet": 4125,
      "##itat": 4126,
      "##peut": 4127,
      "##utang": 4128,
      "##uko": 4129,
      "atl": 4130,
      "##eumpat": 4131,
      "teumanyong": 4132,
      "geupeud": 4133,
      "geutarek": 4134,
      "khas": 4135,
      "##obal": 4136,
      "barangk": 4137,
      "ast": 4138,
      "geupinah": 4139,
      "jitoh": 4140,
      "meuteuntee": 4141,
      "meuseun": 4142,
      "sidroedroe": 4143,
      "berk": 4144,
      "masker": 4145,
      "panah": 4146,
      "aparat": 4147,
      "buket": 4148,
      "jareueng": 4149,
      "##ariat": 4150,
      "tipe": 4151,
      "tatem": 4152,
      "##alisis": 4153,
      "##entuk": 4154,
      "aktif": 4155,
      "dumna": 4156,
      "keubeu": 4157,
      "posisi": 4158,
      "siteungoh": 4159,
      "##anjot": 4160,
      "baginda": 4161,
      "gura": 4162,
      "marit": 4163,
      "mahmud": 4164,
      "pancasila": 4165,
      "##ender": 4166,
      "dipeugah": 4167,
      "plung": 4168,
      "meungnyoe": 4169,
      "beuklam": 4170,
      "bidang": 4171,
      "saweub": 4172,
      "usaha": 4173,
      "teupeuget": 4174,
      "geujaweueb": 4175,
      "##alisasi": 4176,
      "nuraka": 4177,
      "musik": 4178,
      "pomeurintah": 4179,
      "kiamat": 4180,
      "##halin": 4181,
      "redha": 4182,
      "mameh": 4183,
      "geupeugoet": 4184,
      "helsin": 4185,
      "mongolia": 4186,
      "ukheue": 4187,
      "lebeh": 4188,
      "wapheuet": 4189,
      "helsinki": 4190,
      "beng": 4191,
      "bhan": 4192,
      "beunt": 4193,
      "camp": 4194,
      "cac": 4195,
      "fi": 4196,
      "rom": 4197,
      "sue": 4198,
      "talak": 4199,
      "wo": 4200,
      "##pu": 4201,
      "##pt": 4202,
      "##luek": 4203,
      "##dum": 4204,
      "##bong": 4205,
      "##rib": 4206,
      "##va": 4207,
      "##visi": 4208,
      "##qh": 4209,
      "meuka": 4210,
      "meuasoe": 4211,
      "##areuem": 4212,
      "##alkan": 4213,
      "teujadi": 4214,
      "##roek": 4215,
      "##erb": 4216,
      "naf": 4217,
      "##nyata": 4218,
      "##aweub": 4219,
      "seus": 4220,
      "alasan": 4221,
      "geupeusi": 4222,
      "geuteumeung": 4223,
      "khianat": 4224,
      "tren": 4225,
      "##asaalah": 4226,
      "meunancit": 4227,
      "laenlaen": 4228,
      "indrap": 4229,
      "industri": 4230,
      "jiteuka": 4231,
      "makalah": 4232,
      "meurdeka": 4233,
      "perd": 4234,
      "peuek": 4235,
      "lheuehnyan": 4236,
      "seulim": 4237,
      "jipeuk": 4238,
      "##ost": 4239,
      "matee": 4240,
      "bate": 4241,
      "seuneubok": 4242,
      "unik": 4243,
      "katreb": 4244,
      "bicah": 4245,
      "rakanrakan": 4246,
      "atejih": 4247,
      "teubuka": 4248,
      "geunguy": 4249,
      "seureng": 4250,
      "sapeu": 4251,
      "geuritan": 4252,
      "ukuran": 4253,
      "dipeut": 4254,
      "meuceuhu": 4255,
      "meujanjan": 4256,
      "keren": 4257,
      "meusifeuet": 4258,
      "semangat": 4259,
      "sahbat": 4260,
      "kirem": 4261,
      "idi": 4262,
      "fatlon": 4263,
      "mete": 4264,
      "hasil": 4265,
      "dimiy": 4266,
      "meuyub": 4267,
      "hidup": 4268,
      "smp": 4269,
      "dokum": 4270,
      "bentuk": 4271,
      "titah": 4272,
      "efisi": 4273,
      "##jahtra": 4274,
      "ibnu": 4275,
      "jhony": 4276,
      "indrapuri": 4277,
      "bun": 4278,
      "daj": 4279,
      "eee": 4280,
      "hati": 4281,
      "ikh": 4282,
      "jajah": 4283,
      "jeuem": 4284,
      "luka": 4285,
      "loem": 4286,
      "lumb": 4287,
      "may": 4288,
      "ribee": 4289,
      "seng": 4290,
      "sangka": 4291,
      "toeh": 4292,
      "tungg": 4293,
      "vari": 4294,
      "yuem": 4295,
      "##ewa": 4296,
      "##nanggroe": 4297,
      "##bagah": 4298,
      "##ris": 4299,
      "##aks": 4300,
      "##akeuh": 4301,
      "##aksa": 4302,
      "##ngaroh": 4303,
      "##amee": 4304,
      "##ameun": 4305,
      "##abong": 4306,
      "keutur": 4307,
      "keuada": 4308,
      "##alim": 4309,
      "##asana": 4310,
      "siur": 4311,
      "sisat": 4312,
      "ngat": 4313,
      "##oka": 4314,
      "##sip": 4315,
      "##uru": 4316,
      "##urunan": 4317,
      "##ihat": 4318,
      "##awong": 4319,
      "##uto": 4320,
      "##iksi": 4321,
      "##ampon": 4322,
      "##eungeuk": 4323,
      "atoran": 4324,
      "anjinoe": 4325,
      "alkah": 4326,
      "geuteum": 4327,
      "tuh": 4328,
      "##ore": 4329,
      "aba": 4330,
      "##riwang": 4331,
      "##ebe": 4332,
      "jiteupeue": 4333,
      "iseulam": 4334,
      "dijak": 4335,
      "meuseubab": 4336,
      "perte": 4337,
      "##pateh": 4338,
      "adab": 4339,
      "meuho": 4340,
      "##ogen": 4341,
      "jipeuget": 4342,
      "krek": 4343,
      "geumup": 4344,
      "geumeuhei": 4345,
      "blo": 4346,
      "geuhoi": 4347,
      "ump": 4348,
      "kalheueh": 4349,
      "##ley": 4350,
      "balah": 4351,
      "balek": 4352,
      "jikoh": 4353,
      "peutunyok": 4354,
      "akses": 4355,
      "uneun": 4356,
      "sipoet": 4357,
      "##impah": 4358,
      "global": 4359,
      "marwah": 4360,
      "neukalon": 4361,
      "bagahbagah": 4362,
      "bitbit": 4363,
      "hayeue": 4364,
      "damai": 4365,
      "milite": 4366,
      "revolusi": 4367,
      "jurong": 4368,
      "##ript": 4369,
      "rajek": 4370,
      "##mudah": 4371,
      "honda": 4372,
      "setuju": 4373,
      "anggap": 4374,
      "sesuai": 4375,
      "##ukoep": 4376,
      "corona": 4377,
      "konservasi": 4378,
      "organisasi": 4379,
      "pimpinan": 4380,
      "rincong": 4381,
      "jitimoh": 4382,
      "maksiet": 4383,
      "peurancih": 4384,
      "air": 4385,
      "dali": 4386,
      "grah": 4387,
      "hei": 4388,
      "haf": 4389,
      "ijoe": 4390,
      "je": 4391,
      "las": 4392,
      "lid": 4393,
      "lalat": 4394,
      "lidah": 4395,
      "nov": 4396,
      "oen": 4397,
      "reut": 4398,
      "sapat": 4399,
      "yueb": 4400,
      "##preh": 4401,
      "##luk": 4402,
      "##laku": 4403,
      "##oun": 4404,
      "##sh": 4405,
      "##syah": 4406,
      "##mas": 4407,
      "##fa": 4408,
      "##feut": 4409,
      "##akh": 4410,
      "##ons": 4411,
      "meugreb": 4412,
      "##eet": 4413,
      "lada": 4414,
      "##itik": 4415,
      "##uroh": 4416,
      "##awasan": 4417,
      "##ape": 4418,
      "##agam": 4419,
      "##agia": 4420,
      "##unj": 4421,
      "input": 4422,
      "##anggok": 4423,
      "awakkah": 4424,
      "##uwan": 4425,
      "##khot": 4426,
      "##kuh": 4427,
      "##eurang": 4428,
      "geupateh": 4429,
      "geubaca": 4430,
      "meutunang": 4431,
      "peureute": 4432,
      "pers": 4433,
      "adun": 4434,
      "salang": 4435,
      "geumeur": 4436,
      "geumarit": 4437,
      "keuduwa": 4438,
      "laku": 4439,
      "peuneugah": 4440,
      "harok": 4441,
      "suasana": 4442,
      "##eusu": 4443,
      "dilikot": 4444,
      "teutob": 4445,
      "salahuddin": 4446,
      "##ukaan": 4447,
      "decoder": 4448,
      "sipak": 4449,
      "blahdeh": 4450,
      "##eugam": 4451,
      "sakhalin": 4452,
      "teuhah": 4453,
      "lapangan": 4454,
      "jideungoe": 4455,
      "rhoh": 4456,
      "warna": 4457,
      "neubeuet": 4458,
      "rustam": 4459,
      "saweue": 4460,
      "tema": 4461,
      "##teri": 4462,
      "##ograman": 4463,
      "yahudi": 4464,
      "pikiran": 4465,
      "sambinoe": 4466,
      "##tronik": 4467,
      "tanduk": 4468,
      "munaf": 4469,
      "gareh": 4470,
      "lahee": 4471,
      "konten": 4472,
      "kapiten": 4473,
      "kapitalis": 4474,
      "eunteuk": 4475,
      "drien": 4476,
      "rencana": 4477,
      "leungkap": 4478,
      "pintoe": 4479,
      "tanyoeng": 4480,
      "assalamualaikum": 4481,
      "elektronik": 4482,
      "soviet": 4483,
      "peumeurentah": 4484,
      "##oibeutoi": 4485,
      "keuadaan": 4486,
      "alkahar": 4487,
      "bra": 4488,
      "dn": 4489,
      "deur": 4490,
      "ee": 4491,
      "eu": 4492,
      "eur": 4493,
      "gah": 4494,
      "ita": 4495,
      "kim": 4496,
      "lin": 4497,
      "lanja": 4498,
      "moh": 4499,
      "oc": 4500,
      "raga": 4501,
      "seg": 4502,
      "tol": 4503,
      "tingg": 4504,
      "tupeue": 4505,
      "vek": 4506,
      "vok": 4507,
      "##ein": 4508,
      "##leubeh": 4509,
      "##gi": 4510,
      "##goh": 4511,
      "##tim": 4512,
      "##kam": 4513,
      "##sp": 4514,
      "##sab": 4515,
      "##yam": 4516,
      "##ril": 4517,
      "##van": 4518,
      "##val": 4519,
      "##mer": 4520,
      "##jik": 4521,
      "nye": 4522,
      "##amatan": 4523,
      "##ehatan": 4524,
      "keuk": 4525,
      "##asat": 4526,
      "##asik": 4527,
      "##asti": 4528,
      "##eksa": 4529,
      "##inyan": 4530,
      "##ais": 4531,
      "##aisy": 4532,
      "##ihah": 4533,
      "thoe": 4534,
      "thail": 4535,
      "##euny": 4536,
      "##eunang": 4537,
      "##euneh": 4538,
      "##awati": 4539,
      "##ukom": 4540,
      "##api": 4541,
      "##imah": 4542,
      "##ilat": 4543,
      "##ilek": 4544,
      "##eumb": 4545,
      "intan": 4546,
      "alg": 4547,
      "alan": 4548,
      "khan": 4549,
      "##oba": 4550,
      "##obar": 4551,
      "##asaan": 4552,
      "lheueng": 4553,
      "##riek": 4554,
      "kaba": 4555,
      "geupakek": 4556,
      "konf": 4557,
      "meureubot": 4558,
      "##edah": 4559,
      "isya": 4560,
      "diaceh": 4561,
      "brm": 4562,
      "rakaat": 4563,
      "sababnyan": 4564,
      "krn": 4565,
      "krist": 4566,
      "geume": 4567,
      "geumoe": 4568,
      "meukeunong": 4569,
      "kapegah": 4570,
      "lakab": 4571,
      "peuneu": 4572,
      "harapan": 4573,
      "geulawan": 4574,
      "jimeuhei": 4575,
      "tapike": 4576,
      "sikin": 4577,
      "jibeurangkat": 4578,
      "jikab": 4579,
      "turki": 4580,
      "tabloe": 4581,
      "simbol": 4582,
      "##awanan": 4583,
      "teupike": 4584,
      "silek": 4585,
      "teunanyong": 4586,
      "mardeka": 4587,
      "##seulamat": 4588,
      "lapang": 4589,
      "ibadah": 4590,
      "distr": 4591,
      "plat": 4592,
      "keras": 4593,
      "beunagi": 4594,
      "teureut": 4595,
      "peudagang": 4596,
      "punca": 4597,
      "iheuehnyan": 4598,
      "dukung": 4599,
      "nasehat": 4600,
      "bgsa": 4601,
      "deli": 4602,
      "geujaga": 4603,
      "bayeue": 4604,
      "bungkoh": 4605,
      "kebon": 4606,
      "##eae": 4607,
      "neumat": 4608,
      "seungap": 4609,
      "kontrol": 4610,
      "transform": 4611,
      "tungku": 4612,
      "liar": 4613,
      "rangkang": 4614,
      "kafe": 4615,
      "undangundang": 4616,
      "quraisy": 4617,
      "pacok": 4618,
      "kompleks": 4619,
      "dabeueh": 4620,
      "pemrograman": 4621,
      "akademik": 4622,
      "australia": 4623,
      "astana": 4624,
      "siuroeuroe": 4625,
      "ai": 4626,
      "bangga": 4627,
      "ceumeu": 4628,
      "dawa": 4629,
      "dump": 4630,
      "ex": 4631,
      "gulee": 4632,
      "hp": 4633,
      "jasa": 4634,
      "lanc": 4635,
      "lanjutkan": 4636,
      "meh": 4637,
      "mupat": 4638,
      "masaalah": 4639,
      "nonton": 4640,
      "pd": 4641,
      "soh": 4642,
      "sehat": 4643,
      "suhu": 4644,
      "vir": 4645,
      "wud": 4646,
      "yu": 4647,
      "yub": 4648,
      "##een": 4649,
      "##gai": 4650,
      "##hak": 4651,
      "##iang": 4652,
      "##bur": 4653,
      "##yg": 4654,
      "##aturan": 4655,
      "nyawong": 4656,
      "meupat": 4657,
      "meuwoe": 4658,
      "##abu": 4659,
      "keupeue": 4660,
      "bakar": 4661,
      "##erame": 4662,
      "lay": 4663,
      "##ait": 4664,
      "##itor": 4665,
      "lamiet": 4666,
      "sabang": 4667,
      "theun": 4668,
      "##awak": 4669,
      "##imitif": 4670,
      "atr": 4671,
      "##usoe": 4672,
      "lagenyan": 4673,
      "##ington": 4674,
      "##eubeuet": 4675,
      "##euboet": 4676,
      "##elan": 4677,
      "##raf": 4678,
      "##oli": 4679,
      "##asiet": 4680,
      "neuwoe": 4681,
      "asei": 4682,
      "taf": 4683,
      "geuprang": 4684,
      "malah": 4685,
      "malaya": 4686,
      "meulaot": 4687,
      "meurana": 4688,
      "habib": 4689,
      "habitat": 4690,
      "perusahaan": 4691,
      "kaye": 4692,
      "saleh": 4693,
      "saleng": 4694,
      "salman": 4695,
      "putra": 4696,
      "##eupa": 4697,
      "timur": 4698,
      "aron": 4699,
      "menan": 4700,
      "takot": 4701,
      "##jip": 4702,
      "geulanggang": 4703,
      "jibeuet": 4704,
      "##entitas": 4705,
      "jamen": 4706,
      "banten": 4707,
      "##ernova": 4708,
      "djeut": 4709,
      "djinoe": 4710,
      "tabri": 4711,
      "samat": 4712,
      "geupeutamong": 4713,
      "hategeuh": 4714,
      "peumuda": 4715,
      "imarah": 4716,
      "ibadat": 4717,
      "##euntang": 4718,
      "supernova": 4719,
      "tanggong": 4720,
      "neupubuet": 4721,
      "kluet": 4722,
      "miyueb": 4723,
      "nasib": 4724,
      "seudangkan": 4725,
      "hayeu": 4726,
      "new": 4727,
      "dinanggroe": 4728,
      "korup": 4729,
      "korea": 4730,
      "jigisa": 4731,
      "kalimah": 4732,
      "miseuejih": 4733,
      "antek": 4734,
      "oseuha": 4735,
      "tugas": 4736,
      "seulaweuet": 4737,
      "komunitas": 4738,
      "jeuleupak": 4739,
      "lumo": 4740,
      "judo": 4741,
      "##zahir": 4742,
      "pageue": 4743,
      "nikobar": 4744,
      "peureudlee": 4745,
      "ideologi": 4746,
      "resmi": 4747,
      "thailand": 4748,
      "bupat": 4749,
      "ceul": 4750,
      "dong": 4751,
      "euh": 4752,
      "ij": 4753,
      "mie": 4754,
      "mult": 4755,
      "out": 4756,
      "pee": 4757,
      "rib": 4758,
      "vis": 4759,
      "yoe": 4760,
      "##ew": 4761,
      "##uari": 4762,
      "##nn": 4763,
      "##nel": 4764,
      "##gad": 4765,
      "##ox": 4766,
      "##teng": 4767,
      "##ky": 4768,
      "##kul": 4769,
      "##wal": 4770,
      "##waj": 4771,
      "##bu": 4772,
      "##rab": 4773,
      "##ver": 4774,
      "##cue": 4775,
      "##eujak": 4776,
      "##ako": 4777,
      "##akk": 4778,
      "geuato": 4779,
      "meugrak": 4780,
      "##aria": 4781,
      "jioeh": 4782,
      "teuj": 4783,
      "##eks": 4784,
      "##roen": 4785,
      "##inal": 4786,
      "##ulkan": 4787,
      "##adan": 4788,
      "##adab": 4789,
      "##awok": 4790,
      "##apo": 4791,
      "##eungui": 4792,
      "##age": 4793,
      "##eutoe": 4794,
      "##uduk": 4795,
      "##irik": 4796,
      "geupeumudah": 4797,
      "##isti": 4798,
      "##euba": 4799,
      "awaknyoe": 4800,
      "lomba": 4801,
      "nanggroenanggroe": 4802,
      "lhe": 4803,
      "uluwa": 4804,
      "##eulih": 4805,
      "syaf": 4806,
      "##eureub": 4807,
      "jitheun": 4808,
      "jiteupeu": 4809,
      "jitren": 4810,
      "makan": 4811,
      "bahgia": 4812,
      "brk": 4813,
      "peuraho": 4814,
      "peurkara": 4815,
      "adam": 4816,
      "paken": 4817,
      "paksa": 4818,
      "##jaan": 4819,
      "pengalaman": 4820,
      "pengembangan": 4821,
      "bers": 4822,
      "phang": 4823,
      "jipreh": 4824,
      "##eudoa": 4825,
      "masen": 4826,
      "tanaman": 4827,
      "timp": 4828,
      "kapu": 4829,
      "blet": 4830,
      "arsit": 4831,
      "lake": 4832,
      "paloh": 4833,
      "peuluwah": 4834,
      "patot": 4835,
      "bukit": 4836,
      "ramerame": 4837,
      "phonphon": 4838,
      "balang": 4839,
      "buah": 4840,
      "##grob": 4841,
      "angget": 4842,
      "##tani": 4843,
      "##esis": 4844,
      "tulesan": 4845,
      "peumimpin": 4846,
      "sapue": 4847,
      "saf": 4848,
      "geurancang": 4849,
      "careng": 4850,
      "sjariat": 4851,
      "kulah": 4852,
      "jeund": 4853,
      "baje": 4854,
      "tuboeh": 4855,
      "meujampu": 4856,
      "itek": 4857,
      "spek": 4858,
      "lempap": 4859,
      "geupeuluwah": 4860,
      "##odean": 4861,
      "leuhoe": 4862,
      "##aikot": 4863,
      "angkasah": 4864,
      "kesehatan": 4865,
      "keupeuet": 4866,
      "keturunan": 4867,
      "##hhhh": 4868,
      "musibah": 4869,
      "geuseumayang": 4870,
      "##aidah": 4871,
      "desember": 4872,
      "rajaraja": 4873,
      "seulawah": 4874,
      "teudeungoe": 4875,
      "huruf": 4876,
      "refer": 4877,
      "seusabe": 4878,
      "efisien": 4879,
      "vektor": 4880,
      "platform": 4881,
      "transformer": 4882,
      "arsitektur": 4883,
      "can": 4884,
      "cov": 4885,
      "fran": 4886,
      "fasil": 4887,
      "gong": 4888,
      "gaji": 4889,
      "gigoe": 4890,
      "ilah": 4891,
      "jah": 4892,
      "kus": 4893,
      "lup": 4894,
      "lila": 4895,
      "mol": 4896,
      "mari": 4897,
      "pangg": 4898,
      "pka": 4899,
      "pos": 4900,
      "pli": 4901,
      "rabi": 4902,
      "sederhana": 4903,
      "tumpok": 4904,
      "tawanan": 4905,
      "##pet": 4906,
      "##lh": 4907,
      "##long": 4908,
      "##tasi": 4909,
      "##wi": 4910,
      "##wandi": 4911,
      "##her": 4912,
      "##dh": 4913,
      "##bon": 4914,
      "##rasi": 4915,
      "##ate": 4916,
      "##att": 4917,
      "##atat": 4918,
      "geuchik": 4919,
      "##are": 4920,
      "##abilitas": 4921,
      "jieb": 4922,
      "jiwa": 4923,
      "##umu": 4924,
      "##aiman": 4925,
      "##ulasi": 4926,
      "najih": 4927,
      "##ayon": 4928,
      "##ajo": 4929,
      "lamuri": 4930,
      "uroeuroe": 4931,
      "##aweuep": 4932,
      "seuoet": 4933,
      "##ampoeng": 4934,
      "##apeue": 4935,
      "##eungk": 4936,
      "##imb": 4937,
      "##imbak": 4938,
      "aneh": 4939,
      "ancam": 4940,
      "pre": 4941,
      "##usak": 4942,
      "##uduek": 4943,
      "alfat": 4944,
      "##iry": 4945,
      "meunikah": 4946,
      "geutanyo": 4947,
      "##idekan": 4948,
      "##juet": 4949,
      "##epatan": 4950,
      "##eulileng": 4951,
      "neuyue": 4952,
      "##kha": 4953,
      "##kusi": 4954,
      "ruman": 4955,
      "rumoeh": 4956,
      "geupileh": 4957,
      "##angkee": 4958,
      "meulue": 4959,
      "konsi": 4960,
      "meureutoh": 4961,
      "dijih": 4962,
      "brp": 4963,
      "meuse": 4964,
      "ekboh": 4965,
      "bangunan": 4966,
      "meuhi": 4967,
      "jipot": 4968,
      "krak": 4969,
      "binasa": 4970,
      "##osen": 4971,
      "manfaat": 4972,
      "peunjajah": 4973,
      "beutoibeutoi": 4974,
      "soekar": 4975,
      "bukon": 4976,
      "dile": 4977,
      "peuteuk": 4978,
      "taturi": 4979,
      "##grop": 4980,
      "wilajah": 4981,
      "dumnan": 4982,
      "keubiet": 4983,
      "ihsan": 4984,
      "teubit": 4985,
      "ditii": 4986,
      "##eujit": 4987,
      "##efox": 4988,
      "silu": 4989,
      "silaen": 4990,
      "jiseum": 4991,
      "istikh": 4992,
      "teunang": 4993,
      "intel": 4994,
      "ikat": 4995,
      "motif": 4996,
      "tanggoh": 4997,
      "ilmee": 4998,
      "wajib": 4999,
      "mengh": 5000,
      "tunt": 5001,
      "metee": 5002,
      "senjata": 5003,
      "geupeusapat": 5004,
      "repres": 5005,
      "##izh": 5006,
      "riwang": 5007,
      "lawe": 5008,
      "konsep": 5009,
      "syehki": 5010,
      "##untoh": 5011,
      "irama": 5012,
      "seungab": 5013,
      "benteng": 5014,
      "tradisional": 5015,
      "taim": 5016,
      "##eutahuan": 5017,
      "efek": 5018,
      "##jalanan": 5019,
      "meuhubong": 5020,
      "firefox": 5021,
      "permukaan": 5022,
      "wisata": 5023,
      "kreatif": 5024,
      "##abowo": 5025,
      "tayue": 5026,
      "pangkai": 5027,
      "mideuen": 5028,
      "mustahe": 5029,
      "mekanisme": 5030,
      "dunia": 5031,
      "atlantik": 5032,
      "bupati": 5033,
      "istikharah": 5034,
      "bom": 5035,
      "bis": 5036,
      "ceh": 5037,
      "cangk": 5038,
      "gem": 5039,
      "gasin": 5040,
      "jl": 5041,
      "lo": 5042,
      "lungk": 5043,
      "noe": 5044,
      "nar": 5045,
      "net": 5046,
      "pay": 5047,
      "pep": 5048,
      "pinah": 5049,
      "rac": 5050,
      "ruh": 5051,
      "seueng": 5052,
      "sji": 5053,
      "sari": 5054,
      "tet": 5055,
      "tind": 5056,
      "##ujoe": 5057,
      "##pir": 5058,
      "##ler": 5059,
      "##lop": 5060,
      "##loeh": 5061,
      "##tob": 5062,
      "##ko": 5063,
      "##kin": 5064,
      "##sur": 5065,
      "##de": 5066,
      "##bir": 5067,
      "##yn": 5068,
      "##za": 5069,
      "##meuen": 5070,
      "##fk": 5071,
      "##akata": 5072,
      "##aklok": 5073,
      "##amet": 5074,
      "##ono": 5075,
      "keukuasa": 5076,
      "nyangna": 5077,
      "##asta": 5078,
      "kada": 5079,
      "sifeut": 5080,
      "##erdeka": 5081,
      "peuc": 5082,
      "laos": 5083,
      "layang": 5084,
      "##itam": 5085,
      "##ajang": 5086,
      "##oku": 5087,
      "##peuta": 5088,
      "uruek": 5089,
      "##ukat": 5090,
      "##apor": 5091,
      "##agan": 5092,
      "analisis": 5093,
      "##uno": 5094,
      "primitif": 5095,
      "prabowo": 5096,
      "##ile": 5097,
      "##euman": 5098,
      "##ubit": 5099,
      "alee": 5100,
      "##anyot": 5101,
      "teumeung": 5102,
      "geutaguen": 5103,
      "kham": 5104,
      "##lahe": 5105,
      "##ord": 5106,
      "##oritas": 5107,
      "rayat": 5108,
      "ulikot": 5109,
      "bani": 5110,
      "bans": 5111,
      "##asif": 5112,
      "bandet": 5113,
      "neur": 5114,
      "taat": 5115,
      "taulan": 5116,
      "geupuga": 5117,
      "jitinggai": 5118,
      "kond": 5119,
      "brs": 5120,
      "brb": 5121,
      "kamuih": 5122,
      "ubi": 5123,
      "meusajan": 5124,
      "keureu": 5125,
      "mugh": 5126,
      "keuneulheueh": 5127,
      "meuhadap": 5128,
      "jipeuh": 5129,
      "kreh": 5130,
      "kreueh": 5131,
      "sampo": 5132,
      "komb": 5133,
      "uts": 5134,
      "uteun": 5135,
      "utosan": 5136,
      "tamb": 5137,
      "bulat": 5138,
      "arran": 5139,
      "peunuleh": 5140,
      "##uhada": 5141,
      "menc": 5142,
      "soesoe": 5143,
      "tapoh": 5144,
      "suara": 5145,
      "baluem": 5146,
      "tivi": 5147,
      "peutugeh": 5148,
      "meubah": 5149,
      "meubantu": 5150,
      "gadeh": 5151,
      "dewan": 5152,
      "tgku": 5153,
      "sulaiman": 5154,
      "katem": 5155,
      "sibuleuen": 5156,
      "djid": 5157,
      "museum": 5158,
      "biaya": 5159,
      "geupeutalo": 5160,
      "teuboh": 5161,
      "neupeut": 5162,
      "elemen": 5163,
      "saah": 5164,
      "silop": 5165,
      "glap": 5166,
      "keurajeun": 5167,
      "serikat": 5168,
      "serial": 5169,
      "lampoeh": 5170,
      "dipeuget": 5171,
      "peunget": 5172,
      "peungeutahuan": 5173,
      "alatalat": 5174,
      "##ansuri": 5175,
      "##uliaan": 5176,
      "beasajih": 5177,
      "filem": 5178,
      "naseukah": 5179,
      "tutoe": 5180,
      "jadah": 5181,
      "lambat": 5182,
      "tulehsan": 5183,
      "almar": 5184,
      "irwandi": 5185,
      "sambong": 5186,
      "seulawet": 5187,
      "aziz": 5188,
      "cerita": 5189,
      "##jahtera": 5190,
      "peureudee": 5191,
      "sunggoh": 5192,
      "handjeuet": 5193,
      "##rayek": 5194,
      "jerman": 5195,
      "jingieng": 5196,
      "pengkodean": 5197,
      "reunyeuen": 5198,
      "gagal": 5199,
      "khutubah": 5200,
      "peurangui": 5201,
      "seulimum": 5202,
      "keuturonan": 5203,
      "kimia": 5204,
      "algorit": 5205,
      "output": 5206,
      "anggeta": 5207,
      "fasilitas": 5208,
      "representasi": 5209,
      "keukuasaan": 5210,
      "aim": 5211,
      "bing": 5212,
      "beub": 5213,
      "bism": 5214,
      "cuda": 5215,
      "der": 5216,
      "foto": 5217,
      "gig": 5218,
      "hba": 5219,
      "idong": 5220,
      "kpa": 5221,
      "luw": 5222,
      "lug": 5223,
      "mik": 5224,
      "moen": 5225,
      "neh": 5226,
      "neb": 5227,
      "pong": 5228,
      "quran": 5229,
      "rel": 5230,
      "sn": 5231,
      "suw": 5232,
      "struktur": 5233,
      "wawasan": 5234,
      "##pp": 5235,
      "##poh": 5236,
      "##ly": 5237,
      "##ger": 5238,
      "##tek": 5239,
      "##kitab": 5240,
      "##hik": 5241,
      "##iem": 5242,
      "##sara": 5243,
      "##sch": 5244,
      "##com": 5245,
      "##qi": 5246,
      "##eupat": 5247,
      "##angoh": 5248,
      "##atur": 5249,
      "##atis": 5250,
      "##onyoe": 5251,
      "geurakan": 5252,
      "jiku": 5253,
      "keuyak": 5254,
      "keuchik": 5255,
      "##asama": 5256,
      "kazak": 5257,
      "siti": 5258,
      "baka": 5259,
      "##uma": 5260,
      "peuj": 5261,
      "lae": 5262,
      "##uler": 5263,
      "##eta": 5264,
      "##etik": 5265,
      "hansah": 5266,
      "##peud": 5267,
      "##imewa": 5268,
      "ateuch": 5269,
      "inti": 5270,
      "##anyol": 5271,
      "lagot": 5272,
      "teumeunak": 5273,
      "##aceae": 5274,
      "bekna": 5275,
      "##ebab": 5276,
      "geupake": 5277,
      "geupakoe": 5278,
      "jiteumeung": 5279,
      "maks": 5280,
      "meutj": 5281,
      "meutia": 5282,
      "meuluwah": 5283,
      "meulaju": 5284,
      "meuranto": 5285,
      "##edia": 5286,
      "broh": 5287,
      "bangsat": 5288,
      "pengamatan": 5289,
      "##eudong": 5290,
      "kareueng": 5291,
      "seulanyan": 5292,
      "maser": 5293,
      "tima": 5294,
      "geukira": 5295,
      "geuhar": 5296,
      "##tiek": 5297,
      "pattani": 5298,
      "chan": 5299,
      "darw": 5300,
      "kupeu": 5301,
      "kualitas": 5302,
      "geuliny": 5303,
      "jimup": 5304,
      "kalin": 5305,
      "pujoe": 5306,
      "sikeuj": 5307,
      "jikirem": 5308,
      "beurita": 5309,
      "tatueng": 5310,
      "##grasi": 5311,
      "droeneueh": 5312,
      "##ental": 5313,
      "meubida": 5314,
      "meubileueng": 5315,
      "park": 5316,
      "siploeh": 5317,
      "katroh": 5318,
      "tajaga": 5319,
      "##luengplueng": 5320,
      "meuguna": 5321,
      "pusu": 5322,
      "##embangkan": 5323,
      "rakanjih": 5324,
      "##atuha": 5325,
      "samalang": 5326,
      "##indoeng": 5327,
      "ditamoeng": 5328,
      "saudi": 5329,
      "sileuw": 5330,
      "tarah": 5331,
      "##alahuddin": 5332,
      "shalahuddin": 5333,
      "wareh": 5334,
      "minah": 5335,
      "dikee": 5336,
      "semen": 5337,
      "rusak": 5338,
      "cuak": 5339,
      "mudi": 5340,
      "beliau": 5341,
      "genus": 5342,
      "kleng": 5343,
      "kampong": 5344,
      "dukungan": 5345,
      "sidro": 5346,
      "alahai": 5347,
      "geupeusah": 5348,
      "peundidekan": 5349,
      "eumpung": 5350,
      "hasee": 5351,
      "sineuk": 5352,
      "musim": 5353,
      "fitri": 5354,
      "johan": 5355,
      "eksp": 5356,
      "kontribusi": 5357,
      "titek": 5358,
      "##cuali": 5359,
      "tunggara": 5360,
      "##truksi": 5361,
      "sunggoeh": 5362,
      "bangket": 5363,
      "galeuen": 5364,
      "hijriah": 5365,
      "keuradjeun": 5366,
      "bergek": 5367,
      "nafsu": 5368,
      "tuhatuha": 5369,
      "lidia": 5370,
      "algoritma": 5371,
      "aimag": 5372,
      "samalanga": 5373,
      "aji": 5374,
      "bee": 5375,
      "cam": 5376,
      "ceum": 5377,
      "cint": 5378,
      "cie": 5379,
      "dend": 5380,
      "eum": 5381,
      "ft": 5382,
      "fah": 5383,
      "gep": 5384,
      "gaih": 5385,
      "jos": 5386,
      "jeuep": 5387,
      "jampok": 5388,
      "jeungki": 5389,
      "lih": 5390,
      "land": 5391,
      "lib": 5392,
      "leus": 5393,
      "mue": 5394,
      "mont": 5395,
      "pai": 5396,
      "pgah": 5397,
      "publik": 5398,
      "pajak": 5399,
      "sag": 5400,
      "somb": 5401,
      "said": 5402,
      "##eja": 5403,
      "##goe": 5404,
      "##th": 5405,
      "##hin": 5406,
      "##heuen": 5407,
      "##sep": 5408,
      "##barang": 5409,
      "##ye": 5410,
      "##ry": 5411,
      "##vitas": 5412,
      "##zair": 5413,
      "##mal": 5414,
      "##jek": 5415,
      "##euah": 5416,
      "##ngat": 5417,
      "geunt": 5418,
      "##arm": 5419,
      "jiw": 5420,
      "keuj": 5421,
      "keuaceh": 5422,
      "##alen": 5423,
      "##eni": 5424,
      "##enang": 5425,
      "##entif": 5426,
      "kacok": 5427,
      "sirip": 5428,
      "teupeugah": 5429,
      "ngeun": 5430,
      "##ekat": 5431,
      "##ery": 5432,
      "##erus": 5433,
      "##inos": 5434,
      "##indong": 5435,
      "##iti": 5436,
      "hanaj": 5437,
      "##engkan": 5438,
      "##ajek": 5439,
      "##adhan": 5440,
      "##utuhan": 5441,
      "##iki": 5442,
      "##andong": 5443,
      "anim": 5444,
      "thatthat": 5445,
      "##openg": 5446,
      "ino": 5447,
      "##anggasoe": 5448,
      "##iru": 5449,
      "teuman": 5450,
      "teumieng": 5451,
      "##ungi": 5452,
      "geutah": 5453,
      "geuteumee": 5454,
      "geutupeue": 5455,
      "##eles": 5456,
      "lonk": 5457,
      "abah": 5458,
      "teunget": 5459,
      "banduwa": 5460,
      "syuhada": 5461,
      "##oengan": 5462,
      "geupasoe": 5463,
      "makajih": 5464,
      "bahaya": 5465,
      "meuturi": 5466,
      "meutheun": 5467,
      "meulang": 5468,
      "divisi": 5469,
      "brt": 5470,
      "meusoe": 5471,
      "peran": 5472,
      "perang": 5473,
      "perma": 5474,
      "rakjat": 5475,
      "adap": 5476,
      "muf": 5477,
      "keuno": 5478,
      "keunoeng": 5479,
      "berjuang": 5480,
      "phan": 5481,
      "jipup": 5482,
      "##euduek": 5483,
      "seumeubeuet": 5484,
      "amai": 5485,
      "geumulai": 5486,
      "manah": 5487,
      "##tren": 5488,
      "geukeurija": 5489,
      "peunikah": 5490,
      "takbir": 5491,
      "peulom": 5492,
      "pansan": 5493,
      "beutat": 5494,
      "beutroh": 5495,
      "chi": 5496,
      "jimeuk": 5497,
      "jimarit": 5498,
      "tapajoh": 5499,
      "ramadhan": 5500,
      "beureukat": 5501,
      "tapeul": 5502,
      "tapeug": 5503,
      "tapeur": 5504,
      "keubud": 5505,
      "seunurat": 5506,
      "lageenyoe": 5507,
      "sithon": 5508,
      "meudawa": 5509,
      "simaken": 5510,
      "biru": 5511,
      "terb": 5512,
      "tulak": 5513,
      "solusi": 5514,
      "peukawen": 5515,
      "##indu": 5516,
      "raseumi": 5517,
      "maret": 5518,
      "##jadah": 5519,
      "meusigo": 5520,
      "dikeu": 5521,
      "sahabat": 5522,
      "alias": 5523,
      "beunantu": 5524,
      "bela": 5525,
      "genre": 5526,
      "geunaseh": 5527,
      "kitabkitab": 5528,
      "beasa": 5529,
      "tjukoep": 5530,
      "##aikat": 5531,
      "##aikom": 5532,
      "jeumot": 5533,
      "tuto": 5534,
      "siribee": 5535,
      "angkee": 5536,
      "fatihah": 5537,
      "tund": 5538,
      "jambee": 5539,
      "keupala": 5540,
      "digata": 5541,
      "keudeih": 5542,
      "upaya": 5543,
      "geupeukeumang": 5544,
      "singkil": 5545,
      "goenyoe": 5546,
      "luminos": 5547,
      "pilk": 5548,
      "##adewa": 5549,
      "husen": 5550,
      "##empatan": 5551,
      "bebas": 5552,
      "jeuhet": 5553,
      "##wakili": 5554,
      "##hstan": 5555,
      "maklumat": 5556,
      "##meunan": 5557,
      "berbasis": 5558,
      "meulintee": 5559,
      "meuulangulang": 5560,
      "kristen": 5561,
      "wudluek": 5562,
      "timphan": 5563,
      "rabiul": 5564,
      "##pirasi": 5565,
      "##tober": 5566,
      "arraniry": 5567,
      "bismillah": 5568,
      "kazakhstan": 5569,
      "keuacehan": 5570,
      "luminositas": 5571,
      "aq": 5572,
      "bo": 5573,
      "bib": 5574,
      "bangg": 5575,
      "bie": 5576,
      "broek": 5577,
      "cang": 5578,
      "cop": 5579,
      "cali": 5580,
      "dah": 5581,
      "dll": 5582,
      "deupa": 5583,
      "dfk": 5584,
      "fa": 5585,
      "fik": 5586,
      "gd": 5587,
      "gak": 5588,
      "gul": 5589,
      "gil": 5590,
      "hang": 5591,
      "jroeh": 5592,
      "kue": 5593,
      "lirik": 5594,
      "mn": 5595,
      "mob": 5596,
      "nah": 5597,
      "ori": 5598,
      "pha": 5599,
      "panyot": 5600,
      "ron": 5601,
      "sangk": 5602,
      "saran": 5603,
      "tot": 5604,
      "toem": 5605,
      "taguen": 5606,
      "weue": 5607,
      "web": 5608,
      "waf": 5609,
      "##nia": 5610,
      "##gak": 5611,
      "##osa": 5612,
      "##to": 5613,
      "##tal": 5614,
      "##hoh": 5615,
      "##swww": 5616,
      "##bul": 5617,
      "##ras": 5618,
      "##zi": 5619,
      "##meus": 5620,
      "##jut": 5621,
      "##jamaah": 5622,
      "##anat": 5623,
      "##angun": 5624,
      "##atah": 5625,
      "geuubah": 5626,
      "##arata": 5627,
      "##abase": 5628,
      "##ens": 5629,
      "##asui": 5630,
      "##euhat": 5631,
      "kacang": 5632,
      "##roet": 5633,
      "##inasi": 5634,
      "peusa": 5635,
      "##ulek": 5636,
      "##itah": 5637,
      "##itar": 5638,
      "##ete": 5639,
      "##oma": 5640,
      "tham": 5641,
      "##andia": 5642,
      "##ukubu": 5643,
      "##eungeh": 5644,
      "##ante": 5645,
      "##eutap": 5646,
      "prut": 5647,
      "prib": 5648,
      "##use": 5649,
      "##udoh": 5650,
      "##anggab": 5651,
      "alhaf": 5652,
      "teumas": 5653,
      "geutham": 5654,
      "geutunyok": 5655,
      "##ingoh": 5656,
      "##euboh": 5657,
      "nibaknyan": 5658,
      "##upateh": 5659,
      "##acara": 5660,
      "asan": 5661,
      "syeedara": 5662,
      "tau": 5663,
      "geubi": 5664,
      "maladewa": 5665,
      "jiteurimong": 5666,
      "makkah": 5667,
      "meulawan": 5668,
      "meuribee": 5669,
      "meurdehka": 5670,
      "bro": 5671,
      "brasil": 5672,
      "meusom": 5673,
      "persia": 5674,
      "adu": 5675,
      "keunam": 5676,
      "salar": 5677,
      "putik": 5678,
      "jipo": 5679,
      "jipeuek": 5680,
      "jipuwoe": 5681,
      "seumeujit": 5682,
      "karang": 5683,
      "geumeus": 5684,
      "tanoeh": 5685,
      "tanjong": 5686,
      "leubehleubeh": 5687,
      "timbak": 5688,
      "tameh": 5689,
      "buloh": 5690,
      "sigli": 5691,
      "sigolom": 5692,
      "rayekrayek": 5693,
      "peunajoeh": 5694,
      "peunutoh": 5695,
      "paleuet": 5696,
      "penj": 5697,
      "penteng": 5698,
      "patpat": 5699,
      "patoet": 5700,
      "apangoh": 5701,
      "kupeugah": 5702,
      "bathat": 5703,
      "jimeur": 5704,
      "geusok": 5705,
      "beureutoh": 5706,
      "##aihi": 5707,
      "seuneul": 5708,
      "jame": 5709,
      "jameuen": 5710,
      "meuploh": 5711,
      "keumamah": 5712,
      "keumala": 5713,
      "##eugoe": 5714,
      "bijak": 5715,
      "meuduroe": 5716,
      "samad": 5717,
      "samlak": 5718,
      "lheuhnyan": 5719,
      "##seuleusoe": 5720,
      "##ingkatan": 5721,
      "seureung": 5722,
      "seuramoe": 5723,
      "geurasa": 5724,
      "peusapat": 5725,
      "teunak": 5726,
      "mahk": 5727,
      "seri": 5728,
      "dipeur": 5729,
      "sunnah": 5730,
      "peungeuh": 5731,
      "beukaih": 5732,
      "seubeutoi": 5733,
      "juara": 5734,
      "majeulih": 5735,
      "kureng": 5736,
      "kuto": 5737,
      "neutem": 5738,
      "teurasa": 5739,
      "geupeulara": 5740,
      "seutjara": 5741,
      "##fornia": 5742,
      "meumacam": 5743,
      "pendapat": 5744,
      "droneueh": 5745,
      "geugantoe": 5746,
      "hamzah": 5747,
      "ketua": 5748,
      "peneliti": 5749,
      "pemerintahan": 5750,
      "##syiah": 5751,
      "bhasa": 5752,
      "beuhe": 5753,
      "hikmah": 5754,
      "##ujud": 5755,
      "##allahu": 5756,
      "lumpo": 5757,
      "kriet": 5758,
      "geupeuhase": 5759,
      "database": 5760,
      "wabup": 5761,
      "geusie": 5762,
      "kecepatan": 5763,
      "editor": 5764,
      "hambo": 5765,
      "cetak": 5766,
      "free": 5767,
      "dalong": 5768,
      "pokok": 5769,
      "tingkah": 5770,
      "sembah": 5771,
      "tangkulok": 5772,
      "lagoina": 5773,
      "zakaria": 5774,
      "lembaga": 5775,
      "hainyan": 5776,
      "geumeurat": 5777,
      "konflik": 5778,
      "tafsir": 5779,
      "visual": 5780,
      "##istiwa": 5781,
      "soekarno": 5782,
      "tindakan": 5783,
      "mughayat": 5784,
      "almarhum": 5785,
      "maksud": 5786,
      "sombong": 5787,
      "##entifikasi": 5788,
      "permainan": 5789,
      "california": 5790,
      "alhafizh": 5791,
      "ara": 5792,
      "bon": 5793,
      "den": 5794,
      "dur": 5795,
      "eek": 5796,
      "evolusi": 5797,
      "gra": 5798,
      "goet": 5799,
      "ganggang": 5800,
      "gule": 5801,
      "hoi": 5802,
      "hip": 5803,
      "hebat": 5804,
      "idang": 5805,
      "ipeugah": 5806,
      "iran": 5807,
      "jr": 5808,
      "jue": 5809,
      "kg": 5810,
      "kot": 5811,
      "lan": 5812,
      "langg": 5813,
      "ling": 5814,
      "lusa": 5815,
      "nong": 5816,
      "nama": 5817,
      "ob": 5818,
      "pui": 5819,
      "rp": 5820,
      "roe": 5821,
      "ruw": 5822,
      "ranc": 5823,
      "reuoh": 5824,
      "song": 5825,
      "sed": 5826,
      "saka": 5827,
      "sma": 5828,
      "tin": 5829,
      "ungk": 5830,
      "was": 5831,
      "wash": 5832,
      "wasiet": 5833,
      "yun": 5834,
      "##lem": 5835,
      "##lap": 5836,
      "##nis": 5837,
      "##kut": 5838,
      "##kel": 5839,
      "##keur": 5840,
      "##kawen": 5841,
      "##ieb": 5842,
      "##sc": 5843,
      "##bint": 5844,
      "##yum": 5845,
      "##rama": 5846,
      "##zina": 5847,
      "##je": 5848,
      "##anoe": 5849,
      "##atoh": 5850,
      "##atja": 5851,
      "##amar": 5852,
      "meuak": 5853,
      "##arkan": 5854,
      "##abel": 5855,
      "jigrak": 5856,
      "keusy": 5857,
      "kaca": 5858,
      "siet": 5859,
      "sijuek": 5860,
      "teukhem": 5861,
      "##eria": 5862,
      "##umi": 5863,
      "peujabat": 5864,
      "##aim": 5865,
      "##ulama": 5866,
      "##ulagu": 5867,
      "hanjet": 5868,
      "lamt": 5869,
      "##urang": 5870,
      "##urna": 5871,
      "thani": 5872,
      "urat": 5873,
      "##andan": 5874,
      "##emuan": 5875,
      "seujak": 5876,
      "##apee": 5877,
      "##imen": 5878,
      "##antah": 5879,
      "##antok": 5880,
      "ategeuh": 5881,
      "prot": 5882,
      "##usuek": 5883,
      "##ushu": 5884,
      "##ibr": 5885,
      "##udah": 5886,
      "##ubuku": 5887,
      "lagulagu": 5888,
      "aweueh": 5889,
      "geupeutron": 5890,
      "geutob": 5891,
      "##rafi": 5892,
      "##orasi": 5893,
      "##ues": 5894,
      "neucok": 5895,
      "meunanmeunan": 5896,
      "taq": 5897,
      "tauf": 5898,
      "##ester": 5899,
      "##eurasi": 5900,
      "indentitas": 5901,
      "jitakot": 5902,
      "bahagia": 5903,
      "meulimpah": 5904,
      "diyub": 5905,
      "kamba": 5906,
      "meuseu": 5907,
      "##ungka": 5908,
      "berhasil": 5909,
      "kayue": 5910,
      "meuhas": 5911,
      "jipajoeh": 5912,
      "karim": 5913,
      "ohnoe": 5914,
      "##eupoh": 5915,
      "meukeus": 5916,
      "timue": 5917,
      "##inggi": 5918,
      "tamup": 5919,
      "areuti": 5920,
      "signi": 5921,
      "geukoh": 5922,
      "peningkatan": 5923,
      "##manoe": 5924,
      "jareng": 5925,
      "bataih": 5926,
      "umi": 5927,
      "kalheh": 5928,
      "##taf": 5929,
      "##hani": 5930,
      "bali": 5931,
      "beurangkat": 5932,
      "teutuleh": 5933,
      "##entingan": 5934,
      "singet": 5935,
      "unsyiah": 5936,
      "meupisah": 5937,
      "parsi": 5938,
      "suku": 5939,
      "djit": 5940,
      "situek": 5941,
      "tabeue": 5942,
      "tabib": 5943,
      "meudeh": 5944,
      "geupeutimang": 5945,
      "pasoe": 5946,
      "neupeugot": 5947,
      "peukaru": 5948,
      "teupeh": 5949,
      "##hahillah": 5950,
      "istilah": 5951,
      "rabu": 5952,
      "serang": 5953,
      "kedroe": 5954,
      "bajeng": 5955,
      "warga": 5956,
      "moder": 5957,
      "yohgoh": 5958,
      "neuba": 5959,
      "kakheun": 5960,
      "sawet": 5961,
      "beuneung": 5962,
      "beunda": 5963,
      "ilmu": 5964,
      "geuneuk": 5965,
      "geuneurasi": 5966,
      "belah": 5967,
      "kubukubu": 5968,
      "oktober": 5969,
      "hakim": 5970,
      "jeumeuat": 5971,
      "fathahillah": 5972,
      "geupeurintah": 5973,
      "kunci": 5974,
      "##ingkatkan": 5975,
      "kesempatan": 5976,
      "dengon": 5977,
      "horeumat": 5978,
      "barangbarang": 5979,
      "hasj": 5980,
      "milik": 5981,
      "tangse": 5982,
      "##asarkan": 5983,
      "fitnah": 5984,
      "inspirasi": 5985,
      "johor": 5986,
      "conto": 5987,
      "dhalem": 5988,
      "syarif": 5989,
      "goep": 5990,
      "teori": 5991,
      "tenggara": 5992,
      "seugohlom": 5993,
      "keubitk": 5994,
      "teudjadi": 5995,
      "bileueng": 5996,
      "comwat": 5997,
      "sebagoe": 5998,
      "santri": 5999,
      "mandua": 6000,
      "nikmat": 6001,
      "geumeukeusud": 6002,
      "ceurita": 6003,
      "baitur": 6004,
      "penggunaan": 6005,
      "##zhou": 6006,
      "saudaga": 6007,
      "yoehnyan": 6008,
      "fisika": 6009,
      "status": 6010,
      "yusuf": 6011,
      "teureutib": 6012,
      "korupsi": 6013,
      "covid": 6014,
      "lupie": 6015,
      "meutjeuhu": 6016,
      "geulinyueng": 6017,
      "sileuweue": 6018,
      "semenanj": 6019,
      "cintra": 6020,
      "pilkada": 6021,
      "samlakoe": 6022,
      "bt": 6023,
      "bik": 6024,
      "baja": 6025,
      "bayang": 6026,
      "cud": 6027,
      "cue": 6028,
      "est": 6029,
      "fl": 6030,
      "gand": 6031,
      "haj": 6032,
      "his": 6033,
      "jon": 6034,
      "kib": 6035,
      "len": 6036,
      "lis": 6037,
      "qad": 6038,
      "qing": 6039,
      "sr": 6040,
      "soet": 6041,
      "sast": 6042,
      "sungket": 6043,
      "tt": 6044,
      "tupat": 6045,
      "weh": 6046,
      "##uasi": 6047,
      "##ucut": 6048,
      "##lung": 6049,
      "##lemen": 6050,
      "##goet": 6051,
      "##aan": 6052,
      "##kr": 6053,
      "##het": 6054,
      "##ss": 6055,
      "##seun": 6056,
      "##sus": 6057,
      "##sapat": 6058,
      "##dam": 6059,
      "##yid": 6060,
      "##rad": 6061,
      "##vis": 6062,
      "##jai": 6063,
      "##cer": 6064,
      "##far": 6065,
      "##fikan": 6066,
      "##anji": 6067,
      "##angxi": 6068,
      "##ehi": 6069,
      "jikuasa": 6070,
      "##alet": 6071,
      "##enal": 6072,
      "sion": 6073,
      "siman": 6074,
      "ngonjih": 6075,
      "ngonngon": 6076,
      "##inya": 6077,
      "##umon": 6078,
      "##ultan": 6079,
      "##engoe": 6080,
      "##ajuan": 6081,
      "##oman": 6082,
      "##adee": 6083,
      "leg": 6084,
      "lei": 6085,
      "##uree": 6086,
      "##eukoh": 6087,
      "urumoh": 6088,
      "##utap": 6089,
      "##ampuan": 6090,
      "##eutem": 6091,
      "##eutoeh": 6092,
      "##useuha": 6093,
      "##anggot": 6094,
      "alaikum": 6095,
      "geuteume": 6096,
      "##ell": 6097,
      "tuwah": 6098,
      "banuwa": 6099,
      "watei": 6100,
      "##eulak": 6101,
      "aseuka": 6102,
      "##intat": 6103,
      "indah": 6104,
      "rumah": 6105,
      "malengkan": 6106,
      "malaikat": 6107,
      "jitron": 6108,
      "jiteubit": 6109,
      "bahas": 6110,
      "brl": 6111,
      "breuh": 6112,
      "peureus": 6113,
      "rumohjih": 6114,
      "meusan": 6115,
      "meusyarakat": 6116,
      "pengaturan": 6117,
      "##ungkoh": 6118,
      "phil": 6119,
      "salaf": 6120,
      "seumapa": 6121,
      "##ogo": 6122,
      "krong": 6123,
      "geumeup": 6124,
      "##inggang": 6125,
      "tambo": 6126,
      "laknat": 6127,
      "teumpatt": 6128,
      "beugot": 6129,
      "matajih": 6130,
      "peulitek": 6131,
      "##jiang": 6132,
      "##jieb": 6133,
      "beutoei": 6134,
      "geudrop": 6135,
      "hareum": 6136,
      "bukubuku": 6137,
      "jimeurunoe": 6138,
      "tapreh": 6139,
      "tapateh": 6140,
      "jikeum": 6141,
      "beurangk": 6142,
      "diluwa": 6143,
      "tateumee": 6144,
      "donja": 6145,
      "keubon": 6146,
      "uneuen": 6147,
      "meupad": 6148,
      "pareksa": 6149,
      "##chley": 6150,
      "dapeuta": 6151,
      "sipeue": 6152,
      "tajaweuep": 6153,
      "##impen": 6154,
      "##stensi": 6155,
      "sibeur": 6156,
      "musy": 6157,
      "biek": 6158,
      "taba": 6159,
      "meudagang": 6160,
      "meudoa": 6161,
      "ters": 6162,
      "pasar": 6163,
      "pasangan": 6164,
      "neupeur": 6165,
      "##iraan": 6166,
      "##brbr": 6167,
      "sapai": 6168,
      "carekat": 6169,
      "teunaman": 6170,
      "##endum": 6171,
      "ukoran": 6172,
      "rhueng": 6173,
      "ikah": 6174,
      "ikoet": 6175,
      "plan": 6176,
      "peungeut": 6177,
      "minet": 6178,
      "paham": 6179,
      "cuc": 6180,
      "neutham": 6181,
      "beuneueng": 6182,
      "taduek": 6183,
      "lakoegeuh": 6184,
      "klo": 6185,
      "murit": 6186,
      "pasie": 6187,
      "tjit": 6188,
      "cahit": 6189,
      "sireutoh": 6190,
      "sidadu": 6191,
      "fath": 6192,
      "tahap": 6193,
      "papeuen": 6194,
      "jumot": 6195,
      "geugisa": 6196,
      "senang": 6197,
      "##suai": 6198,
      "milek": 6199,
      "militer": 6200,
      "jirasa": 6201,
      "kolab": 6202,
      "djipeu": 6203,
      "##istik": 6204,
      "##load": 6205,
      "hahaha": 6206,
      "quruan": 6207,
      "wahabi": 6208,
      "##xiang": 6209,
      "ratarata": 6210,
      "magh": 6211,
      "danau": 6212,
      "radja": 6213,
      "tentara": 6214,
      "geuweuek": 6215,
      "meprang": 6216,
      "shahabat": 6217,
      "talakee": 6218,
      "meukaet": 6219,
      "europa": 6220,
      "dumpeue": 6221,
      "dongxiang": 6222,
      "##wajeb": 6223,
      "bletchley": 6224,
      "taimom": 6225,
      "racon": 6226,
      "khamkha": 6227,
      "kondisi": 6228,
      "pribadi": 6229,
      "seureungga": 6230,
      "sembahyang": 6231,
      "signifikan": 6232,
      "keubitkeubit": 6233,
      "comwatch": 6234,
      "semenanjung": 6235,
      "baikot": 6236,
      "cup": 6237,
      "ding": 6238,
      "dol": 6239,
      "datu": 6240,
      "fam": 6241,
      "fal": 6242,
      "gangg": 6243,
      "geb": 6244,
      "gapu": 6245,
      "hok": 6246,
      "if": 6247,
      "iii": 6248,
      "jeu": 6249,
      "jel": 6250,
      "kanan": 6251,
      "lar": 6252,
      "lanjot": 6253,
      "mm": 6254,
      "moe": 6255,
      "maw": 6256,
      "maguen": 6257,
      "nab": 6258,
      "pum": 6259,
      "pie": 6260,
      "pingan": 6261,
      "poda": 6262,
      "rang": 6263,
      "rid": 6264,
      "rindu": 6265,
      "sum": 6266,
      "sumpah": 6267,
      "saraf": 6268,
      "tabi": 6269,
      "ug": 6270,
      "woy": 6271,
      "##lab": 6272,
      "##lheueh": 6273,
      "##nda": 6274,
      "##kl": 6275,
      "##ken": 6276,
      "##had": 6277,
      "##hima": 6278,
      "##ium": 6279,
      "##ijak": 6280,
      "##dir": 6281,
      "##bab": 6282,
      "##bandum": 6283,
      "##ror": 6284,
      "##rou": 6285,
      "##mati": 6286,
      "##eugara": 6287,
      "##akui": 6288,
      "##nga": 6289,
      "nyn": 6290,
      "meueun": 6291,
      "meuuk": 6292,
      "##abil": 6293,
      "nyankeu": 6294,
      "##asang": 6295,
      "sipat": 6296,
      "teueh": 6297,
      "ngak": 6298,
      "##eki": 6299,
      "bakongan": 6300,
      "##ino": 6301,
      "peuubat": 6302,
      "laut": 6303,
      "layak": 6304,
      "nacit": 6305,
      "##ayeb": 6306,
      "##itori": 6307,
      "##ajari": 6308,
      "##ajati": 6309,
      "sabi": 6310,
      "##peuna": 6311,
      "##peuni": 6312,
      "nakhon": 6313,
      "##awesi": 6314,
      "##uket": 6315,
      "##ampak": 6316,
      "##upu": 6317,
      "##upue": 6318,
      "##anta": 6319,
      "ateueng": 6320,
      "anoe": 6321,
      "##euma": 6322,
      "##udang": 6323,
      "alf": 6324,
      "alum": 6325,
      "alja": 6326,
      "alzahir": 6327,
      "teumeur": 6328,
      "meuna": 6329,
      "meuneu": 6330,
      "meunuju": 6331,
      "geupeujak": 6332,
      "geupeutroh": 6333,
      "geutren": 6334,
      "khair": 6335,
      "trumon": 6336,
      "##idang": 6337,
      "lheh": 6338,
      "bareh": 6339,
      "ulont": 6340,
      "##eulaih": 6341,
      "##ach": 6342,
      "cita": 6343,
      "asrama": 6344,
      "syed": 6345,
      "##ebut": 6346,
      "##khan": 6347,
      "indiv": 6348,
      "malakat": 6349,
      "baho": 6350,
      "meulayeue": 6351,
      "konv": 6352,
      "isti": 6353,
      "brun": 6354,
      "brangkat": 6355,
      "brbek": 6356,
      "pulau": 6357,
      "peurajek": 6358,
      "nannan": 6359,
      "meuseum": 6360,
      "meuseud": 6361,
      "peri": 6362,
      "perb": 6363,
      "pakoe": 6364,
      "pakiban": 6365,
      "pakaian": 6366,
      "keund": 6367,
      "##umpoe": 6368,
      "jipakat": 6369,
      "jipimpin": 6370,
      "jipubloe": 6371,
      "##ografi": 6372,
      "jipeukaru": 6373,
      "kruet": 6374,
      "sampeng": 6375,
      "geumeuh": 6376,
      "meukroh": 6377,
      "meukarat": 6378,
      "taniet": 6379,
      "kapike": 6380,
      "ureungureung": 6381,
      "peunonton": 6382,
      "palest": 6383,
      "takh": 6384,
      "peuleuh": 6385,
      "peulaku": 6386,
      "ayahgeuh": 6387,
      "##ambo": 6388,
      "##amboeng": 6389,
      "geuduk": 6390,
      "kuy": 6391,
      "batang": 6392,
      "batat": 6393,
      "bateue": 6394,
      "ummi": 6395,
      "geuseubot": 6396,
      "##ove": 6397,
      "pemuda": 6398,
      "pangulee": 6399,
      "tateupeue": 6400,
      "##gron": 6401,
      "tapeud": 6402,
      "james": 6403,
      "nyou": 6404,
      "jaroejih": 6405,
      "pareh": 6406,
      "parlemen": 6407,
      "sipheuet": 6408,
      "djib": 6409,
      "sitot": 6410,
      "sithoen": 6411,
      "teuba": 6412,
      "polo": 6413,
      "geungieng": 6414,
      "surak": 6415,
      "teupah": 6416,
      "seurta": 6417,
      "kawen": 6418,
      "teuningkat": 6419,
      "teunupeue": 6420,
      "deuhjih": 6421,
      "laporan": 6422,
      "alamat": 6423,
      "lampu": 6424,
      "##ungkenan": 6425,
      "diskusi": 6426,
      "kejadian": 6427,
      "jidrob": 6428,
      "##ramerah": 6429,
      "wareunajih": 6430,
      "kerucut": 6431,
      "sarok": 6432,
      "pahala": 6433,
      "hadji": 6434,
      "tangga": 6435,
      "adoejih": 6436,
      "beunileueng": 6437,
      "rahasia": 6438,
      "mewakili": 6439,
      "punt": 6440,
      "teuleubeh": 6441,
      "benih": 6442,
      "sepeda": 6443,
      "pendukung": 6444,
      "seudati": 6445,
      "seudeukah": 6446,
      "kedok": 6447,
      "nejak": 6448,
      "grup": 6449,
      "##ooo": 6450,
      "khusuih": 6451,
      "koran": 6452,
      "kompak": 6453,
      "kepentingan": 6454,
      "geupeukawen": 6455,
      "##untut": 6456,
      "madat": 6457,
      "syariah": 6458,
      "jipeutheun": 6459,
      "haleue": 6460,
      "halouh": 6461,
      "komunis": 6462,
      "potallah": 6463,
      "jeurat": 6464,
      "ekstr": 6465,
      "meuriam": 6466,
      "hahahah": 6467,
      "##kapai": 6468,
      "##ward": 6469,
      "geupeubuet": 6470,
      "ruang": 6471,
      "tpi": 6472,
      "lintas": 6473,
      "keugob": 6474,
      "capok": 6475,
      "gabuk": 6476,
      "gabuek": 6477,
      "sanen": 6478,
      "domba": 6479,
      "wakil": 6480,
      "inframerah": 6481,
      "tenak": 6482,
      "ciret": 6483,
      "kyushu": 6484,
      "peupo": 6485,
      "fisik": 6486,
      "hotee": 6487,
      "interaksi": 6488,
      "prediksi": 6489,
      "deelat": 6490,
      "juni": 6491,
      "syurga": 6492,
      "bede": 6493,
      "irig": 6494,
      "campli": 6495,
      "jipeukeue": 6496,
      "lumboi": 6497,
      "geuteumanyong": 6498,
      "laseuka": 6499,
      "tinggal": 6500,
      "khanuri": 6501,
      "atranyan": 6502,
      "malahajati": 6503,
      "ceulaka": 6504,
      "##ameter": 6505,
      "djidjak": 6506,
      "bingong": 6507,
      "dendayang": 6508,
      "eumpeun": 6509,
      "##bintang": 6510,
      "moderen": 6511,
      "cudajih": 6512,
      "sastra": 6513,
      "##utaputa": 6514,
      "kolaborasi": 6515,
      "comwatchv": 6516,
      "woyla": 6517,
      "aljazair": 6518,
      "individ": 6519,
      "aut": 6520,
      "beek": 6521,
      "ca": 6522,
      "cad": 6523,
      "cuw": 6524,
      "coba": 6525,
      "gro": 6526,
      "ipeu": 6527,
      "jeub": 6528,
      "joek": 6529,
      "jeulah": 6530,
      "jgn": 6531,
      "kk": 6532,
      "kb": 6533,
      "kit": 6534,
      "kasi": 6535,
      "kript": 6536,
      "kupateh": 6537,
      "langk": 6538,
      "langka": 6539,
      "mumat": 6540,
      "myan": 6541,
      "mieng": 6542,
      "mume": 6543,
      "mbong": 6544,
      "neng": 6545,
      "piy": 6546,
      "pip": 6547,
      "rob": 6548,
      "reugam": 6549,
      "sl": 6550,
      "sut": 6551,
      "sha": 6552,
      "ton": 6553,
      "tud": 6554,
      "tes": 6555,
      "tuka": 6556,
      "tumb": 6557,
      "zameun": 6558,
      "##ej": 6559,
      "##eit": 6560,
      "##uep": 6561,
      "##leut": 6562,
      "##leumah": 6563,
      "##lagee": 6564,
      "##nik": 6565,
      "##tikan": 6566,
      "##tual": 6567,
      "##kop": 6568,
      "##hit": 6569,
      "##hur": 6570,
      "##ius": 6571,
      "##iara": 6572,
      "##song": 6573,
      "##sor": 6574,
      "##sos": 6575,
      "##bas": 6576,
      "##ral": 6577,
      "##rut": 6578,
      "##ros": 6579,
      "##zim": 6580,
      "##zirah": 6581,
      "##me": 6582,
      "##malam": 6583,
      "##jul": 6584,
      "##jun": 6585,
      "##cul": 6586,
      "##qah": 6587,
      "##akoet": 6588,
      "##aktif": 6589,
      "##oep": 6590,
      "##angeuh": 6591,
      "##atuddin": 6592,
      "geuf": 6593,
      "geukh": 6594,
      "geuikat": 6595,
      "geugrak": 6596,
      "meugr": 6597,
      "##arti": 6598,
      "jie": 6599,
      "##alu": 6600,
      "##eeta": 6601,
      "kac": 6602,
      "sijahtra": 6603,
      "teutiek": 6604,
      "##eka": 6605,
      "bako": 6606,
      "##erja": 6607,
      "##umpat": 6608,
      "nap": 6609,
      "nad": 6610,
      "##etan": 6611,
      "lamk": 6612,
      "##okon": 6613,
      "##okeuh": 6614,
      "##okus": 6615,
      "##siap": 6616,
      "##peuat": 6617,
      "uram": 6618,
      "nakeu": 6619,
      "##ema": 6620,
      "##upan": 6621,
      "##eungg": 6622,
      "atoe": 6623,
      "##usus": 6624,
      "##ilo": 6625,
      "##ilih": 6626,
      "alem": 6627,
      "away": 6628,
      "geupeutrang": 6629,
      "geupeuampon": 6630,
      "geutueng": 6631,
      "geutakot": 6632,
      "geutulak": 6633,
      "##eubang": 6634,
      "##idek": 6635,
      "##identifikasi": 6636,
      "london": 6637,
      "tua": 6638,
      "##oreumat": 6639,
      "##amaan": 6640,
      "##uwasa": 6641,
      "##kui": 6642,
      "geubayeue": 6643,
      "makh": 6644,
      "bahle": 6645,
      "meuteumeu": 6646,
      "meulet": 6647,
      "isra": 6648,
      "diat": 6649,
      "pulitek": 6650,
      "ubebe": 6651,
      "meusjid": 6652,
      "ekp": 6653,
      "perjalanan": 6654,
      "paket": 6655,
      "muall": 6656,
      "pho": 6657,
      "puta": 6658,
      "##eudoeh": 6659,
      "amad": 6660,
      "kheundak": 6661,
      "geumeukat": 6662,
      "##urip": 6663,
      "keudro": 6664,
      "##ositori": 6665,
      "##inggong": 6666,
      "mencak": 6667,
      "penangg": 6668,
      "peulheueh": 6669,
      "##jijak": 6670,
      "##ulauan": 6671,
      "champa": 6672,
      "harga": 6673,
      "api": 6674,
      "april": 6675,
      "buklet": 6676,
      "kuat": 6677,
      "geulapor": 6678,
      "nangro": 6679,
      "jimoe": 6680,
      "tape": 6681,
      "tapeh": 6682,
      "tapih": 6683,
      "##eget": 6684,
      "puny": 6685,
      "sikrek": 6686,
      "geusuet": 6687,
      "##cip": 6688,
      "jibuka": 6689,
      "##euse": 6690,
      "udah": 6691,
      "jiklik": 6692,
      "tiji": 6693,
      "beurkat": 6694,
      "peuturi": 6695,
      "peuteuntee": 6696,
      "drob": 6697,
      "tateupeu": 6698,
      "akbar": 6699,
      "##ugas": 6700,
      "sulawesi": 6701,
      "toko": 6702,
      "kateuntee": 6703,
      "keulimong": 6704,
      "##sten": 6705,
      "sibeunajih": 6706,
      "meugisa": 6707,
      "sakri": 6708,
      "terp": 6709,
      "pantai": 6710,
      "pasee": 6711,
      "surah": 6712,
      "pejabat": 6713,
      "peukat": 6714,
      "ditiro": 6715,
      "peumand": 6716,
      "keudroejih": 6717,
      "keudroedroe": 6718,
      "sapu": 6719,
      "langa": 6720,
      "##ouck": 6721,
      "##yarat": 6722,
      "jisah": 6723,
      "istimewa": 6724,
      "caroeng": 6725,
      "gla": 6726,
      "peusalah": 6727,
      "tarhah": 6728,
      "##igma": 6729,
      "stok": 6730,
      "sjah": 6731,
      "##endah": 6732,
      "bungsu": 6733,
      "shaleh": 6734,
      "miskin": 6735,
      "wareuga": 6736,
      "bintangbintang": 6737,
      "seubut": 6738,
      "dikheun": 6739,
      "juz": 6740,
      "ahl": 6741,
      "mubah": 6742,
      "##astikan": 6743,
      "onlin": 6744,
      "saweu": 6745,
      "neupeuh": 6746,
      "kasem": 6747,
      "januari": 6748,
      "latin": 6749,
      "tahy": 6750,
      "papma": 6751,
      "metode": 6752,
      "geucatat": 6753,
      "bayeun": 6754,
      "universal": 6755,
      "geugamba": 6756,
      "repositori": 6757,
      "keuphon": 6758,
      "keter": 6759,
      "pandangan": 6760,
      "jirat": 6761,
      "kepulauan": 6762,
      "sayeup": 6763,
      "almuk": 6764,
      "vidio": 6765,
      "bilek": 6766,
      "##adjeb": 6767,
      "bentara": 6768,
      "meuriyam": 6769,
      "peusijuek": 6770,
      "jipeulaku": 6771,
      "anggeeta": 6772,
      "kilang": 6773,
      "husin": 6774,
      "jazirah": 6775,
      "muloed": 6776,
      "ajayeb": 6777,
      "mendukung": 6778,
      "bait": 6779,
      "nepegah": 6780,
      "tupe": 6781,
      "rante": 6782,
      "cabeueng": 6783,
      "maklum": 6784,
      "##resif": 6785,
      "berdasarkan": 6786,
      "golongan": 6787,
      "meuwet": 6788,
      "spektr": 6789,
      "referendum": 6790,
      "kombatan": 6791,
      "utsman": 6792,
      "snouck": 6793,
      "montasik": 6794,
      "publikasi": 6795,
      "copy": 6796,
      "baiturrahman": 6797,
      "qinghai": 6798,
      "simanah": 6799,
      "meusaneut": 6800,
      "sipeuepeue": 6801,
      "alumni": 6802,
      "irigasi": 6803,
      "online": 6804,
      "bap": 6805,
      "bes": 6806,
      "best": 6807,
      "bangke": 6808,
      "cin": 6809,
      "col": 6810,
      "calang": 6811,
      "dapo": 6812,
      "eng": 6813,
      "fase": 6814,
      "fanat": 6815,
      "gut": 6816,
      "heut": 6817,
      "iahe": 6818,
      "jeb": 6819,
      "kod": 6820,
      "kumbang": 6821,
      "leuek": 6822,
      "lst": 6823,
      "lues": 6824,
      "mir": 6825,
      "muw": 6826,
      "mic": 6827,
      "masif": 6828,
      "nom": 6829,
      "nid": 6830,
      "nor": 6831,
      "pn": 6832,
      "reubot": 6833,
      "sump": 6834,
      "sunoe": 6835,
      "tamp": 6836,
      "tir": 6837,
      "vi": 6838,
      "wi": 6839,
      "weuh": 6840,
      "wadjeb": 6841,
      "##eong": 6842,
      "##ega": 6843,
      "##uatan": 6844,
      "##port": 6845,
      "##len": 6846,
      "##nes": 6847,
      "##geud": 6848,
      "##ts": 6849,
      "##tin": 6850,
      "##tib": 6851,
      "##hoem": 6852,
      "##saban": 6853,
      "##dur": 6854,
      "##bal": 6855,
      "##ber": 6856,
      "##bil": 6857,
      "##rom": 6858,
      "##vil": 6859,
      "##mu": 6860,
      "##my": 6861,
      "##mm": 6862,
      "##mak": 6863,
      "##meuh": 6864,
      "##jur": 6865,
      "##cur": 6866,
      "##qa": 6867,
      "##anah": 6868,
      "##anun": 6869,
      "##amakm": 6870,
      "##onyo": 6871,
      "geuanggap": 6872,
      "meueh": 6873,
      "##aris": 6874,
      "##arch": 6875,
      "##abah": 6876,
      "##abuhan": 6877,
      "##aleuek": 6878,
      "##alahan": 6879,
      "kau": 6880,
      "sia": 6881,
      "teuot": 6882,
      "peuta": 6883,
      "nawah": 6884,
      "##ayam": 6885,
      "##ayek": 6886,
      "hancoe": 6887,
      "##okrasi": 6888,
      "##sigo": 6889,
      "sabri": 6890,
      "leon": 6891,
      "##urn": 6892,
      "##urunoe": 6893,
      "##eunah": 6894,
      "##eman": 6895,
      "##aphai": 6896,
      "##eungong": 6897,
      "##imat": 6898,
      "##anteu": 6899,
      "pres": 6900,
      "pros": 6901,
      "##ilaku": 6902,
      "##eumeun": 6903,
      "insan": 6904,
      "alt": 6905,
      "alai": 6906,
      "alma": 6907,
      "##anyi": 6908,
      "geupeuingat": 6909,
      "geutiek": 6910,
      "abed": 6911,
      "##olik": 6912,
      "ulim": 6913,
      "lageelagee": 6914,
      "mantan": 6915,
      "taeu": 6916,
      "indo": 6917,
      "geupub": 6918,
      "geupandang": 6919,
      "geuboeh": 6920,
      "geubalek": 6921,
      "meunye": 6922,
      "jitiek": 6923,
      "jitarek": 6924,
      "makeuh": 6925,
      "bahthat": 6926,
      "meutaga": 6927,
      "##angkap": 6928,
      "meulangkah": 6929,
      "meurakan": 6930,
      "dij": 6931,
      "brit": 6932,
      "##odoh": 6933,
      "peurd": 6934,
      "peurunoe": 6935,
      "meususon": 6936,
      "bangs": 6937,
      "keuneu": 6938,
      "putoeh": 6939,
      "##umpoi": 6940,
      "seumoga": 6941,
      "aminah": 6942,
      "##ogle": 6943,
      "##ogakk": 6944,
      "jipeuduek": 6945,
      "sampoh": 6946,
      "geumeurunoe": 6947,
      "kompeuni": 6948,
      "meukeuneuk": 6949,
      "tanah": 6950,
      "timoeh": 6951,
      "tamu": 6952,
      "areuta": 6953,
      "artik": 6954,
      "sigogo": 6955,
      "peuneug": 6956,
      "paleusu": 6957,
      "##tion": 6958,
      "mati": 6959,
      "takoh": 6960,
      "##jipeu": 6961,
      "cham": 6962,
      "kueuh": 6963,
      "kuny": 6964,
      "batja": 6965,
      "geulumpang": 6966,
      "tapup": 6967,
      "ulamaulama": 6968,
      "kalam": 6969,
      "geusayang": 6970,
      "merah": 6971,
      "jikira": 6972,
      "jikeubah": 6973,
      "beurani": 6974,
      "peuteubiet": 6975,
      "tatupeue": 6976,
      "angka": 6977,
      "unit": 6978,
      "wilayahjih": 6979,
      "keumuliaan": 6980,
      "sukamakm": 6981,
      "keulaji": 6982,
      "keulileng": 6983,
      "djim": 6984,
      "paul": 6985,
      "bij": 6986,
      "meugabong": 6987,
      "beulatang": 6988,
      "bireum": 6989,
      "##anjo": 6990,
      "geupeutubiet": 6991,
      "kapaikapai": 6992,
      "polisi": 6993,
      "sure": 6994,
      "suroh": 6995,
      "gethat": 6996,
      "peasan": 6997,
      "mupet": 6998,
      "##indahan": 6999,
      "babul": 7000,
      "dituri": 7001,
      "##arankan": 7002,
      "##araneugara": 7003,
      "teupue": 7004,
      "riayat": 7005,
      "##oyang": 7006,
      "geuril": 7007,
      "geureub": 7008,
      "glang": 7009,
      "gleueng": 7010,
      "peusampoe": 7011,
      "tarasa": 7012,
      "marco": 7013,
      "budha": 7014,
      "sejahtera": 7015,
      "jeunamee": 7016,
      "enigma": 7017,
      "shogakk": 7018,
      "##search": 7019,
      "meujalan": 7020,
      "kerajaan": 7021,
      "yohnyan": 7022,
      "meusipr": 7023,
      "dikah": 7024,
      "item": 7025,
      "saham": 7026,
      "mubloe": 7027,
      "hadih": 7028,
      "hadir": 7029,
      "kelam": 7030,
      "##aleqh": 7031,
      "peudoeng": 7032,
      "peudana": 7033,
      "peudada": 7034,
      "ilmuwan": 7035,
      "selanjut": 7036,
      "rahsia": 7037,
      "bubar": 7038,
      "bubong": 7039,
      "bubena": 7040,
      "tjukop": 7041,
      "##iii": 7042,
      "fadloen": 7043,
      "angkat": 7044,
      "sidum": 7045,
      "geujaweub": 7046,
      "namiet": 7047,
      "hamdan": 7048,
      "peundidikan": 7049,
      "bacaan": 7050,
      "damee": 7051,
      "horror": 7052,
      "lambong": 7053,
      "##ustus": 7054,
      "grob": 7055,
      "grove": 7056,
      "iskandarmuda": 7057,
      "beudee": 7058,
      "##karya": 7059,
      "music": 7060,
      "fitrah": 7061,
      "syehky": 7062,
      "djipeugah": 7063,
      "diraja": 7064,
      "jeureuman": 7065,
      "emirat": 7066,
      "jeulaih": 7067,
      "tawar": 7068,
      "miseujih": 7069,
      "kopi": 7070,
      "santon": 7071,
      "meulaenlaen": 7072,
      "geupeuphon": 7073,
      "neulakee": 7074,
      "otom": 7075,
      "gereja": 7076,
      "##perimen": 7077,
      "konteks": 7078,
      "ieropa": 7079,
      "logat": 7080,
      "teluk": 7081,
      "##osil": 7082,
      "neugaraneugara": 7083,
      "hrefhttpswww": 7084,
      "perkiraan": 7085,
      "haramjadah": 7086,
      "##ederhanaan": 7087,
      "satp": 7088,
      "terkenal": 7089,
      "raden": 7090,
      "##carong": 7091,
      "leumbaga": 7092,
      "hijriyah": 7093,
      "predator": 7094,
      "penghianat": 7095,
      "lipeh": 7096,
      "syuruga": 7097,
      "dimiyub": 7098,
      "dokumen": 7099,
      "munafik": 7100,
      "distrik": 7101,
      "ceumeucue": 7102,
      "pliek": 7103,
      "alfathani": 7104,
      "tambahan": 7105,
      "animasi": 7106,
      "keubudayaan": 7107,
      "grafik": 7108,
      "taufik": 7109,
      "meukeusut": 7110,
      "teumpatteumpat": 7111,
      "palestina": 7112,
      "individu": 7113,
      "cuwak": 7114,
      "muallem": 7115,
      "mencakup": 7116,
      "##cipta": 7117,
      "tahyeuet": 7118,
      "lstm": 7119,
      "sukamakmur": 7120,
      "shogakkukan": 7121,
      "asi": 7122,
      "bot": 7123,
      "bor": 7124,
      "bha": 7125,
      "cagee": 7126,
      "cuntoh": 7127,
      "dg": 7128,
      "dama": 7129,
      "drah": 7130,
      "debat": 7131,
      "fosil": 7132,
      "ga": 7133,
      "gasa": 7134,
      "hie": 7135,
      "ig": 7136,
      "ikan": 7137,
      "jay": 7138,
      "jra": 7139,
      "jamaah": 7140,
      "kn": 7141,
      "kin": 7142,
      "king": 7143,
      "kanda": 7144,
      "keg": 7145,
      "kip": 7146,
      "kembang": 7147,
      "kandang": 7148,
      "ler": 7149,
      "leng": 7150,
      "lob": 7151,
      "lusi": 7152,
      "lini": 7153,
      "mesi": 7154,
      "nat": 7155,
      "non": 7156,
      "nen": 7157,
      "oe": 7158,
      "pam": 7159,
      "pura": 7160,
      "pajoeh": 7161,
      "qanun": 7162,
      "rok": 7163,
      "rud": 7164,
      "resi": 7165,
      "raf": 7166,
      "riyoh": 7167,
      "rila": 7168,
      "reutoh": 7169,
      "riau": 7170,
      "rendah": 7171,
      "sri": 7172,
      "str": 7173,
      "sou": 7174,
      "td": 7175,
      "teb": 7176,
      "ung": 7177,
      "use": 7178,
      "wet": 7179,
      "wib": 7180,
      "##ex": 7181,
      "##uat": 7182,
      "##po": 7183,
      "##piyoh": 7184,
      "##leuh": 7185,
      "##lad": 7186,
      "##larat": 7187,
      "##geu": 7188,
      "##gnan": 7189,
      "##gampong": 7190,
      "##tuan": 7191,
      "##teran": 7192,
      "##teungoh": 7193,
      "##kak": 7194,
      "##ket": 7195,
      "##we": 7196,
      "##hot": 7197,
      "##hari": 7198,
      "##ssearch": 7199,
      "##yot": 7200,
      "##yuk": 7201,
      "##ree": 7202,
      "##rogen": 7203,
      "##ve": 7204,
      "##vo": 7205,
      "##mon": 7206,
      "##mut": 7207,
      "##mond": 7208,
      "##mawati": 7209,
      "##juk": 7210,
      "##con": 7211,
      "##fer": 7212,
      "##akuan": 7213,
      "##oes": 7214,
      "##amanan": 7215,
      "geuangkee": 7216,
      "geuanggab": 7217,
      "meuap": 7218,
      "meuku": 7219,
      "meuikot": 7220,
      "meuato": 7221,
      "##abar": 7222,
      "##abab": 7223,
      "##aburi": 7224,
      "jipateh": 7225,
      "nyangkeuh": 7226,
      "##enak": 7227,
      "##enyo": 7228,
      "kaum": 7229,
      "siumu": 7230,
      "sikhan": 7231,
      "teulah": 7232,
      "##roeng": 7233,
      "##erang": 7234,
      "##inh": 7235,
      "##inesia": 7236,
      "peuna": 7237,
      "peukeuh": 7238,
      "peujeuet": 7239,
      "peuduek": 7240,
      "##aye": 7241,
      "##ayet": 7242,
      "##ayeuk": 7243,
      "##itra": 7244,
      "##iteran": 7245,
      "##etak": 7246,
      "##engk": 7247,
      "##adar": 7248,
      "##ikoet": 7249,
      "##andji": 7250,
      "##andori": 7251,
      "##ukeh": 7252,
      "seusuai": 7253,
      "##apang": 7254,
      "##imbang": 7255,
      "##antang": 7256,
      "##antren": 7257,
      "##agian": 7258,
      "##aganda": 7259,
      "##agangan": 7260,
      "atom": 7261,
      "##unnah": 7262,
      "##unjong": 7263,
      "pranc": 7264,
      "##usoh": 7265,
      "##anggong": 7266,
      "alen": 7267,
      "jihad": 7268,
      "teume": 7269,
      "awk": 7270,
      "meuneukat": 7271,
      "geupeum": 7272,
      "geupeuguna": 7273,
      "geupeuutang": 7274,
      "geutop": 7275,
      "khal": 7276,
      "##eph": 7277,
      "##epat": 7278,
      "raymond": 7279,
      "awakmuda": 7280,
      "ulua": 7281,
      "banat": 7282,
      "asy": 7283,
      "asj": 7284,
      "asap": 7285,
      "asahan": 7286,
      "tauh": 7287,
      "##khusus": 7288,
      "##eureul": 7289,
      "geupeh": 7290,
      "geupup": 7291,
      "geubalah": 7292,
      "geubatja": 7293,
      "jituoh": 7294,
      "makjun": 7295,
      "meutuka": 7296,
      "meulagu": 7297,
      "meurat": 7298,
      "meureud": 7299,
      "disip": 7300,
      "brd": 7301,
      "pulom": 7302,
      "peurangkat": 7303,
      "meusu": 7304,
      "meusok": 7305,
      "meuseuk": 7306,
      "ekosi": 7307,
      "padup": 7308,
      "keurapee": 7309,
      "muh": 7310,
      "mualim": 7311,
      "pengg": 7312,
      "berp": 7313,
      "berkarya": 7314,
      "kayak": 7315,
      "phet": 7316,
      "karam": 7317,
      "kareng": 7318,
      "karangan": 7319,
      "ohnan": 7320,
      "amati": 7321,
      "masy": 7322,
      "masam": 7323,
      "masanyan": 7324,
      "masehi": 7325,
      "##ogan": 7326,
      "kahabeh": 7327,
      "geumumat": 7328,
      "meukah": 7329,
      "meukeumat": 7330,
      "tameu": 7331,
      "tamse": 7332,
      "blok": 7333,
      "blog": 7334,
      "arm": 7335,
      "maen": 7336,
      "beuj": 7337,
      "beuji": 7338,
      "haruih": 7339,
      "hareutoe": 7340,
      "apai": 7341,
      "batu": 7342,
      "batas": 7343,
      "jimeut": 7344,
      "jimeukat": 7345,
      "tapuwoe": 7346,
      "##egal": 7347,
      "geusambot": 7348,
      "udeep": 7349,
      "tiek": 7350,
      "ticem": 7351,
      "drou": 7352,
      "tatanyong": 7353,
      "angga": 7354,
      "akti": 7355,
      "seunjata": 7356,
      "seunagan": 7357,
      "##tanian": 7358,
      "meubasa": 7359,
      "meubaca": 7360,
      "meubeda": 7361,
      "teukeubi": 7362,
      "dec": 7363,
      "singapura": 7364,
      "nekjih": 7365,
      "nektu": 7366,
      "meuputa": 7367,
      "parui": 7368,
      "daulat": 7369,
      "katuha": 7370,
      "katakata": 7371,
      "tajok": 7372,
      "##impon": 7373,
      "turk": 7374,
      "biadab": 7375,
      "pust": 7376,
      "saman": 7377,
      "ujoeng": 7378,
      "geupeutoe": 7379,
      "neupeus": 7380,
      "surot": 7381,
      "##eujad": 7382,
      "##eujanji": 7383,
      "##putoh": 7384,
      "menyerah": 7385,
      "mediteran": 7386,
      "rabbi": 7387,
      "disinoe": 7388,
      "syahadat": 7389,
      "bumo": 7390,
      "##euntak": 7391,
      "##query": 7392,
      "kursi": 7393,
      "kuruan": 7394,
      "spanyol": 7395,
      "##umbuhan": 7396,
      "subra": 7397,
      "portug": 7398,
      "belo": 7399,
      "tadeungoe": 7400,
      "amiruddin": 7401,
      "kenong": 7402,
      "genetik": 7403,
      "geunap": 7404,
      "geunireng": 7405,
      "meja": 7406,
      "miyub": 7407,
      "memori": 7408,
      "file": 7409,
      "tjut": 7410,
      "tjara": 7411,
      "tjhik": 7412,
      "google": 7413,
      "delima": 7414,
      "fatmawati": 7415,
      "dosa": 7416,
      "amplop": 7417,
      "peugoet": 7418,
      "peugleh": 7419,
      "jumad": 7420,
      "meksik": 7421,
      "rukuk": 7422,
      "troeh": 7423,
      "##sual": 7424,
      "dengo": 7425,
      "##ultssearch": 7426,
      "kedro": 7427,
      "dinas": 7428,
      "dinasti": 7429,
      "skala": 7430,
      "digob": 7431,
      "##izer": 7432,
      "pupo": 7433,
      "malikul": 7434,
      "inseueh": 7435,
      "##ripsi": 7436,
      "fakta": 7437,
      "dhiet": 7438,
      "sayed": 7439,
      "madinah": 7440,
      "swasta": 7441,
      "sambot": 7442,
      "penyaket": 7443,
      "penyanyi": 7444,
      "himne": 7445,
      "jeureuneh": 7446,
      "comres": 7447,
      "##kwk": 7448,
      "lumpur": 7449,
      "taiwan": 7450,
      "hijrah": 7451,
      "##adaptasi": 7452,
      "##bangai": 7453,
      "kagadoh": 7454,
      "geupeupastikan": 7455,
      "pertumbuhan": 7456,
      "##landia": 7457,
      "gerakan": 7458,
      "mumacam": 7459,
      "pesan": 7460,
      "tibet": 7461,
      "siseun": 7462,
      "siswa": 7463,
      "rekaman": 7464,
      "geupeuhanco": 7465,
      "khalipah": 7466,
      "permata": 7467,
      "hrefhttpwww": 7468,
      "geumeukawen": 7469,
      "jangkauan": 7470,
      "lubang": 7471,
      "lubeh": 7472,
      "seukal": 7473,
      "kawoem": 7474,
      "abiya": 7475,
      "grakkan": 7476,
      "jalur": 7477,
      "sasaran": 7478,
      "reunyeun": 7479,
      "kosong": 7480,
      "rantau": 7481,
      "alauddin": 7482,
      "keuradjeuen": 7483,
      "calueng": 7484,
      "beuntuk": 7485,
      "dajeue": 7486,
      "geumuprang": 7487,
      "habibah": 7488,
      "jeundran": 7489,
      "tuntut": 7490,
      "suwono": 7491,
      "channel": 7492,
      "ruweueng": 7493,
      "keusyiek": 7494,
      "meunanmeunankeuh": 7495,
      "hasjmy": 7496,
      "sibeuranggasoe": 7497,
      "sipatu": 7498,
      "ulontuan": 7499,
      "brunei": 7500,
      "meuseumangat": 7501,
      "myanmar": 7502,
      "penanggalan": 7503,
      "artikel": 7504,
      "lusignan": 7505,
      "makjunen": 7506,
      "ekosistem": 7507,
      "meksiko": 7508,
      "##ultssearchquery": 7509,
      "comresultssearchquery": 7510,
      "ain": 7511,
      "ari": 7512,
      "beg": 7513,
      "bangka": 7514,
      "bodoh": 7515,
      "cy": 7516,
      "con": 7517,
      "cand": 7518,
      "curang": 7519,
      "ded": 7520,
      "duli": 7521,
      "ejaan": 7522,
      "gon": 7523,
      "gans": 7524,
      "her": 7525,
      "iek": 7526,
      "iaju": 7527,
      "jus": 7528,
      "janggot": 7529,
      "kt": 7530,
      "kob": 7531,
      "lul": 7532,
      "lit": 7533,
      "lil": 7534,
      "lind": 7535,
      "mk": 7536,
      "mei": 7537,
      "murip": 7538,
      "nel": 7539,
      "oeh": 7540,
      "pk": 7541,
      "paw": 7542,
      "pari": 7543,
      "pesi": 7544,
      "pekan": 7545,
      "rut": 7546,
      "rub": 7547,
      "ris": 7548,
      "suri": 7549,
      "tep": 7550,
      "tampong": 7551,
      "tusoe": 7552,
      "wac": 7553,
      "wayang": 7554,
      "yng": 7555,
      "yor": 7556,
      "zul": 7557,
      "##eon": 7558,
      "##lar": 7559,
      "##lep": 7560,
      "##lasi": 7561,
      "##nologi": 7562,
      "##njata": 7563,
      "##gunong": 7564,
      "##gayam": 7565,
      "##thee": 7566,
      "##ke": 7567,
      "##weueh": 7568,
      "##bel": 7569,
      "##yet": 7570,
      "##janj": 7571,
      "##ct": 7572,
      "##fo": 7573,
      "##fit": 7574,
      "##ftar": 7575,
      "##qat": 7576,
      "##euc": 7577,
      "##akab": 7578,
      "##akeuen": 7579,
      "##ngeut": 7580,
      "##atar": 7581,
      "##atka": 7582,
      "nyum": 7583,
      "##amati": 7584,
      "geueu": 7585,
      "geuikot": 7586,
      "geuingat": 7587,
      "geurija": 7588,
      "meuase": 7589,
      "meujuang": 7590,
      "meuubat": 7591,
      "meumada": 7592,
      "##abai": 7593,
      "##aboeh": 7594,
      "##abida": 7595,
      "jikh": 7596,
      "jile": 7597,
      "jigrob": 7598,
      "keuput": 7599,
      "keuaneuk": 7600,
      "keuindahan": 7601,
      "##aleng": 7602,
      "##alel": 7603,
      "##enaran": 7604,
      "##asal": 7605,
      "##asing": 7606,
      "##asangka": 7607,
      "ngeut": 7608,
      "ngoun": 7609,
      "##ekawan": 7610,
      "##ument": 7611,
      "##ulis": 7612,
      "naa": 7613,
      "##itot": 7614,
      "##itasi": 7615,
      "hanif": 7616,
      "##engl": 7617,
      "##engo": 7618,
      "##ajam": 7619,
      "##ajaya": 7620,
      "##oms": 7621,
      "##sie": 7622,
      "##adani": 7623,
      "lep": 7624,
      "##urus": 7625,
      "thaat": 7626,
      "##utusan": 7627,
      "##ikee": 7628,
      "##andeh": 7629,
      "##andian": 7630,
      "##ampta": 7631,
      "##imeum": 7632,
      "##agaman": 7633,
      "ati": 7634,
      "atjara": 7635,
      "ann": 7636,
      "anuk": 7637,
      "anti": 7638,
      "##uni": 7639,
      "##unoh": 7640,
      "pri": 7641,
      "##iba": 7642,
      "##udo": 7643,
      "##uboeng": 7644,
      "##anggaran": 7645,
      "alk": 7646,
      "aleue": 7647,
      "alman": 7648,
      "alaihi": 7649,
      "##anye": 7650,
      "##anyoeng": 7651,
      "jihnyan": 7652,
      "jihei": 7653,
      "meunonton": 7654,
      "##ungkh": 7655,
      "geupeusan": 7656,
      "geupeucaya": 7657,
      "##isyah": 7658,
      "geutot": 7659,
      "geutimbak": 7660,
      "khat": 7661,
      "khen": 7662,
      "khem": 7663,
      "##eubri": 7664,
      "##obr": 7665,
      "##obat": 7666,
      "##idi": 7667,
      "tuj": 7668,
      "tuoh": 7669,
      "awaknya": 7670,
      "lheue": 7671,
      "ulekawan": 7672,
      "banja": 7673,
      "bandeng": 7674,
      "citlom": 7675,
      "aset": 7676,
      "astr": 7677,
      "gamponggampong": 7678,
      "taek": 7679,
      "##esh": 7680,
      "##kueh": 7681,
      "##eureuta": 7682,
      "jitajo": 7683,
      "bahia": 7684,
      "bahpi": 7685,
      "meulangg": 7686,
      "meulayang": 7687,
      "meureunoe": 7688,
      "##edekan": 7689,
      "diwan": 7690,
      "dianggap": 7691,
      "brnyan": 7692,
      "bryg": 7693,
      "peurlee": 7694,
      "kame": 7695,
      "mantongna": 7696,
      "meusambong": 7697,
      "bangon": 7698,
      "bangun": 7699,
      "bangsab": 7700,
      "adee": 7701,
      "agustus": 7702,
      "penguasa": 7703,
      "berani": 7704,
      "kayu": 7705,
      "jipok": 7706,
      "jiprang": 7707,
      "jipho": 7708,
      "jipareksa": 7709,
      "##eudia": 7710,
      "karja": 7711,
      "jipeug": 7712,
      "jipeudong": 7713,
      "geumeudoa": 7714,
      "komandan": 7715,
      "meukleh": 7716,
      "meukayet": 7717,
      "tamoeng": 7718,
      "beujeut": 7719,
      "beujit": 7720,
      "matgayam": 7721,
      "##ambe": 7722,
      "umum": 7723,
      "jimeuh": 7724,
      "kaleh": 7725,
      "kalen": 7726,
      "pueh": 7727,
      "pucak": 7728,
      "geuseutot": 7729,
      "geususon": 7730,
      "geusarankan": 7731,
      "##cial": 7732,
      "jibloe": 7733,
      "dilua": 7734,
      "peuteubit": 7735,
      "##entar": 7736,
      "##ugaih": 7737,
      "meubentuk": 7738,
      "uleejih": 7739,
      "dewi": 7740,
      "singgah": 7741,
      "##chi": 7742,
      "keumeun": 7743,
      "##ativitas": 7744,
      "sipil": 7745,
      "tajik": 7746,
      "ihok": 7747,
      "keulola": 7748,
      "##eugang": 7749,
      "##eugoh": 7750,
      "sibuju": 7751,
      "musa": 7752,
      "keurajaankeur": 7753,
      "meugoe": 7754,
      "meugang": 7755,
      "geubrie": 7756,
      "pantan": 7757,
      "samasama": 7758,
      "polinesia": 7759,
      "sinankeuh": 7760,
      "teuhoi": 7761,
      "mupakat": 7762,
      "babussalam": 7763,
      "##brk": 7764,
      "##brs": 7765,
      "##brm": 7766,
      "##puter": 7767,
      "teupaksa": 7768,
      "geureubot": 7769,
      "jisuet": 7770,
      "peusawat": 7771,
      "mark": 7772,
      "unta": 7773,
      "budi": 7774,
      "mahadi": 7775,
      "iboh": 7776,
      "ibuk": 7777,
      "jeunaweueb": 7778,
      "kead": 7779,
      "syahir": 7780,
      "shall": 7781,
      "sukeesuk": 7782,
      "diplom": 7783,
      "beukai": 7784,
      "sarjana": 7785,
      "minas": 7786,
      "meusik": 7787,
      "seubagai": 7788,
      "majalah": 7789,
      "seupanyo": 7790,
      "adoegeuh": 7791,
      "kakalon": 7792,
      "teureubang": 7793,
      "##ancoe": 7794,
      "selamat": 7795,
      "kiree": 7796,
      "becak": 7797,
      "##blang": 7798,
      "naseb": 7799,
      "nasihat": 7800,
      "meumungkenkan": 7801,
      "##illahi": 7802,
      "guy": 7803,
      "jeumeulah": 7804,
      "luwahjih": 7805,
      "makmum": 7806,
      "ampel": 7807,
      "##argaan": 7808,
      "bungkuk": 7809,
      "hayati": 7810,
      "kemajuan": 7811,
      "kemampuan": 7812,
      "org": 7813,
      "kedah": 7814,
      "jirhom": 7815,
      "kompeni": 7816,
      "reaksi": 7817,
      "peurumohjih": 7818,
      "peuhareuem": 7819,
      "riwajat": 7820,
      "keputusan": 7821,
      "petinggi": 7822,
      "keutuha": 7823,
      "gunung": 7824,
      "madura": 7825,
      "##aido": 7826,
      "haloh": 7827,
      "tariqat": 7828,
      "teorit": 7829,
      "##low": 7830,
      "syekh": 7831,
      "jicoh": 7832,
      "garuda": 7833,
      "##ederal": 7834,
      "meupeungaroh": 7835,
      "rahmatullah": 7836,
      "neulayan": 7837,
      "gerais": 7838,
      "pegasing": 7839,
      "kilo": 7840,
      "sinyal": 7841,
      "assalamu": 7842,
      "mutiara": 7843,
      "bertopeng": 7844,
      "ayon": 7845,
      "syams": 7846,
      "euntat": 7847,
      "tehnologi": 7848,
      "leungka": 7849,
      "jingui": 7850,
      "profesi": 7851,
      "kreativitas": 7852,
      "neudeungo": 7853,
      "khusosjih": 7854,
      "dawah": 7855,
      "demokrasi": 7856,
      "jepang": 7857,
      "peureumadani": 7858,
      "##eheheheh": 7859,
      "geuprunoe": 7860,
      "morcom": 7861,
      "peusaneut": 7862,
      "##rikin": 7863,
      "kpk": 7864,
      "kpd": 7865,
      "cacat": 7866,
      "##ribi": 7867,
      "tunggee": 7868,
      "vokal": 7869,
      "peuneujeuet": 7870,
      "viral": 7871,
      "teujeumah": 7872,
      "jln": 7873,
      "loop": 7874,
      "lungkiek": 7875,
      "beubagah": 7876,
      "keuyakinan": 7877,
      "kalinyoe": 7878,
      "joseph": 7879,
      "lonkeumeung": 7880,
      "wafeuet": 7881,
      "teumasok": 7882,
      "seuneulheuh": 7883,
      "objek": 7884,
      "rancana": 7885,
      "washington": 7886,
      "taqwa": 7887,
      "kiblat": 7888,
      "musyrikin": 7889,
      "maghribi": 7890,
      "gangguan": 7891,
      "##ijakan": 7892,
      "istiq": 7893,
      "kedokteran": 7894,
      "israel": 7895,
      "peumandangan": 7896,
      "nider": 7897,
      "kunyet": 7898,
      "geurilya": 7899,
      "satpam": 7900,
      "kinerja": 7901,
      "tdk": 7902,
      "tauhid": 7903,
      "anggauta": 7904,
      "pustaka": 7905,
      "mediterania": 7906,
      "gansu": 7907,
      "bangsabangsa": 7908,
      "keurajaankeurajaan": 7909,
      "sukeesukee": 7910,
      "teoritis": 7911,
      "aurat": 7912,
      "akui": 7913,
      "bok": 7914,
      "bob": 7915,
      "buh": 7916,
      "beuek": 7917,
      "bingk": 7918,
      "basah": 7919,
      "bosan": 7920,
      "cag": 7921,
      "ciri": 7922,
      "day": 7923,
      "dosen": 7924,
      "er": 7925,
      "feed": 7926,
      "fansuri": 7927,
      "federal": 7928,
      "geng": 7929,
      "gor": 7930,
      "hong": 7931,
      "hap": 7932,
      "hil": 7933,
      "hue": 7934,
      "hui": 7935,
      "halaman": 7936,
      "hape": 7937,
      "iakoe": 7938,
      "jas": 7939,
      "jul": 7940,
      "jant": 7941,
      "jeud": 7942,
      "julok": 7943,
      "kd": 7944,
      "kend": 7945,
      "klik": 7946,
      "krip": 7947,
      "klip": 7948,
      "leun": 7949,
      "lop": 7950,
      "lupa": 7951,
      "luho": 7952,
      "ms": 7953,
      "mos": 7954,
      "muwoe": 7955,
      "munt": 7956,
      "nit": 7957,
      "olah": 7958,
      "pond": 7959,
      "ragoe": 7960,
      "reud": 7961,
      "rangka": 7962,
      "sud": 7963,
      "sch": 7964,
      "vega": 7965,
      "zina": 7966,
      "##uar": 7967,
      "##ugah": 7968,
      "##ujoh": 7969,
      "##pang": 7970,
      "##publoe": 7971,
      "##les": 7972,
      "##ner": 7973,
      "##najih": 7974,
      "##nati": 7975,
      "##tid": 7976,
      "##keunoe": 7977,
      "##kaido": 7978,
      "##wet": 7979,
      "##sg": 7980,
      "##do": 7981,
      "##djid": 7982,
      "##bot": 7983,
      "##rong": 7984,
      "##ret": 7985,
      "##rot": 7986,
      "##rep": 7987,
      "##reuek": 7988,
      "##zar": 7989,
      "##jas": 7990,
      "##cin": 7991,
      "##euon": 7992,
      "##ancam": 7993,
      "##akwah": 7994,
      "##ngui": 7995,
      "##atoran": 7996,
      "##ahoe": 7997,
      "##onyan": 7998,
      "geukuasa": 7999,
      "geuapai": 8000,
      "geuidentifikasi": 8001,
      "meuatoe": 8002,
      "##arak": 8003,
      "##arik": 8004,
      "jimanoe": 8005,
      "keuc": 8006,
      "keucuali": 8007,
      "##aso": 8008,
      "##euhak": 8009,
      "##euham": 8010,
      "siasia": 8011,
      "sipeur": 8012,
      "teugah": 8013,
      "teujal": 8014,
      "ngom": 8015,
      "##ekh": 8016,
      "baku": 8017,
      "bakong": 8018,
      "##erd": 8019,
      "##erat": 8020,
      "##ins": 8021,
      "##inar": 8022,
      "##inet": 8023,
      "##umba": 8024,
      "peujak": 8025,
      "peutron": 8026,
      "peutroh": 8027,
      "##ulu": 8028,
      "##ulam": 8029,
      "nayn": 8030,
      "##itongan": 8031,
      "##ett": 8032,
      "##etoi": 8033,
      "hanek": 8034,
      "hanyot": 8035,
      "##oteuh": 8036,
      "##ajoe": 8037,
      "sabon": 8038,
      "sabda": 8039,
      "les": 8040,
      "##urong": 8041,
      "uro": 8042,
      "##awal": 8043,
      "##ikul": 8044,
      "##ikiran": 8045,
      "##emar": 8046,
      "##ukoem": 8047,
      "##ampilan": 8048,
      "##apeh": 8049,
      "##apache": 8050,
      "##eunguy": 8051,
      "##imak": 8052,
      "##anti": 8053,
      "##anteue": 8054,
      "##agat": 8055,
      "atot": 8056,
      "aturan": 8057,
      "anj": 8058,
      "anuek": 8059,
      "##eutek": 8060,
      "##eutok": 8061,
      "##unah": 8062,
      "prom": 8063,
      "prok": 8064,
      "prunoe": 8065,
      "printah": 8066,
      "##usu": 8067,
      "##eumana": 8068,
      "##uboh": 8069,
      "ineng": 8070,
      "##anggu": 8071,
      "alga": 8072,
      "jihue": 8073,
      "meunt": 8074,
      "meunarek": 8075,
      "geupeujok": 8076,
      "##jaket": 8077,
      "geuter": 8078,
      "geutabai": 8079,
      "khe": 8080,
      "khandori": 8081,
      "##lahra": 8082,
      "trimong": 8083,
      "##idupan": 8084,
      "lonp": 8085,
      "##rauf": 8086,
      "##oro": 8087,
      "##olf": 8088,
      "##olan": 8089,
      "##olasi": 8090,
      "lhom": 8091,
      "banbandum": 8092,
      "##uegah": 8093,
      "neuj": 8094,
      "meunyeurah": 8095,
      "jiteume": 8096,
      "jitunyok": 8097,
      "jituho": 8098,
      "bahya": 8099,
      "bahkeuh": 8100,
      "meutareh": 8101,
      "meutabu": 8102,
      "meularat": 8103,
      "meurampok": 8104,
      "##edur": 8105,
      "diet": 8106,
      "disi": 8107,
      "peurabe": 8108,
      "kameu": 8109,
      "kamera": 8110,
      "uboe": 8111,
      "meusatu": 8112,
      "propaganda": 8113,
      "muhar": 8114,
      "keuneng": 8115,
      "agen": 8116,
      "penget": 8117,
      "pengangg": 8118,
      "bereeh": 8119,
      "jipeh": 8120,
      "jiparoh": 8121,
      "seumaken": 8122,
      "karet": 8123,
      "masuk": 8124,
      "jipeurap": 8125,
      "sampee": 8126,
      "geumeun": 8127,
      "geumanoe": 8128,
      "komen": 8129,
      "meukuta": 8130,
      "tanj": 8131,
      "mannyang": 8132,
      "tameuk": 8133,
      "tameut": 8134,
      "sige": 8135,
      "maa": 8136,
      "peunjaket": 8137,
      "palsu": 8138,
      "menurot": 8139,
      "meningkatkan": 8140,
      "pencipta": 8141,
      "takira": 8142,
      "takeumeung": 8143,
      "takaloen": 8144,
      "peuleumah": 8145,
      "ayahanda": 8146,
      "cheh": 8147,
      "geudelat": 8148,
      "hareukat": 8149,
      "haroih": 8150,
      "apha": 8151,
      "darurat": 8152,
      "buetbuet": 8153,
      "tapubloe": 8154,
      "leumpah": 8155,
      "ramli": 8156,
      "##egan": 8157,
      "geusampoh": 8158,
      "geusatoh": 8159,
      "udh": 8160,
      "jikarat": 8161,
      "tijoh": 8162,
      "dilon": 8163,
      "peutamong": 8164,
      "peutaklok": 8165,
      "tatak": 8166,
      "##enter": 8167,
      "##alami": 8168,
      "##ugoe": 8169,
      "tapeub": 8170,
      "seunuet": 8171,
      "seuneulheueh": 8172,
      "seunseun": 8173,
      "meubaro": 8174,
      "##jarakat": 8175,
      "und": 8176,
      "bantah": 8177,
      "bantai": 8178,
      "baroebar": 8179,
      "keumeukoh": 8180,
      "##ernatif": 8181,
      "##esies": 8182,
      "keudehkeunoe": 8183,
      "katolik": 8184,
      "##stit": 8185,
      "sibeuna": 8186,
      "djalan": 8187,
      "djameun": 8188,
      "musang": 8189,
      "paak": 8190,
      "situju": 8191,
      "pusong": 8192,
      "meudarah": 8193,
      "meudelat": 8194,
      "##embung": 8195,
      "terang": 8196,
      "terimong": 8197,
      "termas": 8198,
      "samar": 8199,
      "geupeuteubit": 8200,
      "teubee": 8201,
      "polandia": 8202,
      "babak": 8203,
      "dithee": 8204,
      "gure": 8205,
      "sapeh": 8206,
      "rijal": 8207,
      "silagoe": 8208,
      "siladum": 8209,
      "glee": 8210,
      "glie": 8211,
      "teuneuka": 8212,
      "menyebab": 8213,
      "seq": 8214,
      "ibi": 8215,
      "panca": 8216,
      "solutanah": 8217,
      "dipeuland": 8218,
      "##orte": 8219,
      "ploeh": 8220,
      "meucah": 8221,
      "meujamaah": 8222,
      "lakseumana": 8223,
      "misteri": 8224,
      "sunan": 8225,
      "eseulamiah": 8226,
      "jilumpat": 8227,
      "peungikot": 8228,
      "minim": 8229,
      "seubalek": 8230,
      "italia": 8231,
      "seupoet": 8232,
      "supaja": 8233,
      "##rani": 8234,
      "hadjar": 8235,
      "kupiah": 8236,
      "subsp": 8237,
      "neutinggai": 8238,
      "kadi": 8239,
      "seles": 8240,
      "neupimpin": 8241,
      "geupeulaku": 8242,
      "peunyum": 8243,
      "kasep": 8244,
      "mempeng": 8245,
      "toep": 8246,
      "tubohjih": 8247,
      "dukon": 8248,
      "kuba": 8249,
      "raprap": 8250,
      "hasanah": 8251,
      "lhoksuk": 8252,
      "penduduk": 8253,
      "latihan": 8254,
      "tasek": 8255,
      "peuglah": 8256,
      "peugawe": 8257,
      "peuguna": 8258,
      "geucom": 8259,
      "geucalitra": 8260,
      "dengoe": 8261,
      "hameh": 8262,
      "kemerdeka": 8263,
      "kebenaran": 8264,
      "pandrah": 8265,
      "nuruddin": 8266,
      "pikee": 8267,
      "##oooo": 8268,
      "programmer": 8269,
      "tangieng": 8270,
      "##hhh": 8271,
      "##unggoh": 8272,
      "digampoeng": 8273,
      "##asarjana": 8274,
      "musium": 8275,
      "tapakoe": 8276,
      "lethat": 8277,
      "##orium": 8278,
      "gundah": 8279,
      "bhs": 8280,
      "##book": 8281,
      "jipeuteubiet": 8282,
      "praktek": 8283,
      "simpan": 8284,
      "pinang": 8285,
      "pineueng": 8286,
      "kajem": 8287,
      "jeurman": 8288,
      "emang": 8289,
      "forum": 8290,
      "teudeungo": 8291,
      "ipegah": 8292,
      "purapura": 8293,
      "kontrak": 8294,
      "reuleueng": 8295,
      "taingat": 8296,
      "geupeupasoe": 8297,
      "geupeubeudoh": 8298,
      "kanada": 8299,
      "lintoe": 8300,
      "raz": 8301,
      "mubagoebagoe": 8302,
      "mumang": 8303,
      "rektor": 8304,
      "##kkkk": 8305,
      "##aroih": 8306,
      "meuhuboeng": 8307,
      "lucu": 8308,
      "##hoeb": 8309,
      "seukitar": 8310,
      "gatok": 8311,
      "gelar": 8312,
      "wahee": 8313,
      "##kwkwkwkw": 8314,
      "##ucap": 8315,
      "meuharab": 8316,
      "neudjak": 8317,
      "demak": 8318,
      "sassan": 8319,
      "limbah": 8320,
      "macek": 8321,
      "gagasan": 8322,
      "khutbah": 8323,
      "mntong": 8324,
      "hainyoe": 8325,
      "geupeudoeng": 8326,
      "dajjal": 8327,
      "variabel": 8328,
      "munafek": 8329,
      "distribusi": 8330,
      "peudagangpeud": 8331,
      "ancaman": 8332,
      "konsisten": 8333,
      "peuteuklom": 8334,
      "jiseumayang": 8335,
      "cangkang": 8336,
      "darwis": 8337,
      "sikeujap": 8338,
      "ciecem": 8339,
      "tapeurati": 8340,
      "tundok": 8341,
      "sangkira": 8342,
      "samadua": 8343,
      "mahkota": 8344,
      "geumeuratep": 8345,
      "areutijih": 8346,
      "gandapura": 8347,
      "peureuseh": 8348,
      "dolok": 8349,
      "hokkaido": 8350,
      "jeura": 8351,
      "alfansuri": 8352,
      "meunapeuat": 8353,
      "periode": 8354,
      "kuyuen": 8355,
      "punyueng": 8356,
      "prosedur": 8357,
      "alternatif": 8358,
      "alaidin": 8359,
      "mupetpet": 8360,
      "meusipreuek": 8361,
      "otomatis": 8362,
      "jumadil": 8363,
      "wacana": 8364,
      "keadilan": 8365,
      "profesional": 8366,
      "niderland": 8367,
      "pondok": 8368,
      "baroebaroe": 8369,
      "menyebabkan": 8370,
      "dipeulandoek": 8371,
      "subspesies": 8372,
      "lhoksukon": 8373,
      "peudagangpeudagang": 8374,
      "aka": 8375,
      "bawang": 8376,
      "bonan": 8377,
      "cul": 8378,
      "ceuk": 8379,
      "cel": 8380,
      "ceb": 8381,
      "dz": 8382,
      "dan": 8383,
      "deb": 8384,
      "dayang": 8385,
      "daleh": 8386,
      "dpr": 8387,
      "deumi": 8388,
      "gi": 8389,
      "guet": 8390,
      "ged": 8391,
      "ganto": 8392,
      "gpu": 8393,
      "griek": 8394,
      "giang": 8395,
      "gudang": 8396,
      "hut": 8397,
      "hud": 8398,
      "heb": 8399,
      "hoka": 8400,
      "iba": 8401,
      "jo": 8402,
      "juet": 8403,
      "jantong": 8404,
      "kli": 8405,
      "kuwah": 8406,
      "lek": 8407,
      "leuk": 8408,
      "leueh": 8409,
      "linggong": 8410,
      "mp": 8411,
      "mom": 8412,
      "meb": 8413,
      "mungk": 8414,
      "madum": 8415,
      "nasi": 8416,
      "numb": 8417,
      "niaga": 8418,
      "ong": 8419,
      "okhot": 8420,
      "poe": 8421,
      "peb": 8422,
      "puka": 8423,
      "pgh": 8424,
      "ramp": 8425,
      "roc": 8426,
      "ruu": 8427,
      "render": 8428,
      "sada": 8429,
      "scien": 8430,
      "tata": 8431,
      "tump": 8432,
      "tangan": 8433,
      "tangke": 8434,
      "uet": 8435,
      "var": 8436,
      "ws": 8437,
      "wan": 8438,
      "yaman": 8439,
      "##eim": 8440,
      "##ech": 8441,
      "##ten": 8442,
      "##keh": 8443,
      "##kinan": 8444,
      "##hir": 8445,
      "##hid": 8446,
      "##hui": 8447,
      "##hianat": 8448,
      "##ix": 8449,
      "##ieh": 8450,
      "##iar": 8451,
      "##iya": 8452,
      "##ialis": 8453,
      "##salam": 8454,
      "##stan": 8455,
      "##deuh": 8456,
      "##bira": 8457,
      "##bilitas": 8458,
      "##yata": 8459,
      "##rg": 8460,
      "##rr": 8461,
      "##mo": 8462,
      "##ment": 8463,
      "##jen": 8464,
      "##jub": 8465,
      "##jahan": 8466,
      "##can": 8467,
      "##cuk": 8468,
      "##que": 8469,
      "##eui": 8470,
      "##euoet": 8471,
      "##atih": 8472,
      "##atasi": 8473,
      "##atuan": 8474,
      "##atawan": 8475,
      "##atihan": 8476,
      "##amkan": 8477,
      "##ahm": 8478,
      "meuf": 8479,
      "meuikat": 8480,
      "meuwar": 8481,
      "##arab": 8482,
      "##abang": 8483,
      "##abeueng": 8484,
      "##abda": 8485,
      "jiuet": 8486,
      "jiriwang": 8487,
      "jiangxi": 8488,
      "keujih": 8489,
      "keuku": 8490,
      "keujeuet": 8491,
      "keungon": 8492,
      "##asy": 8493,
      "##asek": 8494,
      "##aseuet": 8495,
      "##eetan": 8496,
      "sipeu": 8497,
      "siaran": 8498,
      "siaseuet": 8499,
      "ngo": 8500,
      "##ekah": 8501,
      "##eken": 8502,
      "##eral": 8503,
      "##erta": 8504,
      "##ergi": 8505,
      "peunoe": 8506,
      "peucaya": 8507,
      "##aing": 8508,
      "##airi": 8509,
      "##uliek": 8510,
      "##ayeu": 8511,
      "##ayati": 8512,
      "##itaih": 8513,
      "##etika": 8514,
      "##ajal": 8515,
      "##omet": 8516,
      "##oko": 8517,
      "##adh": 8518,
      "##adlon": 8519,
      "##adoli": 8520,
      "##eukaih": 8521,
      "urung": 8522,
      "##awah": 8523,
      "##aweh": 8524,
      "##awet": 8525,
      "##awot": 8526,
      "##awijah": 8527,
      "##utu": 8528,
      "##utee": 8529,
      "##utman": 8530,
      "##ikmati": 8531,
      "##ematan": 8532,
      "##ukui": 8533,
      "seueh": 8534,
      "seurang": 8535,
      "seujana": 8536,
      "##ampho": 8537,
      "##apun": 8538,
      "##apkan": 8539,
      "##eungap": 8540,
      "ani": 8541,
      "##eutak": 8542,
      "##eutanyoe": 8543,
      "##unat": 8544,
      "pro": 8545,
      "pra": 8546,
      "prob": 8547,
      "##usat": 8548,
      "##ustaf": 8549,
      "##illa": 8550,
      "##ibagi": 8551,
      "##opsi": 8552,
      "##opih": 8553,
      "##eumeurang": 8554,
      "alon": 8555,
      "alur": 8556,
      "aliran": 8557,
      "aldj": 8558,
      "alex": 8559,
      "jihar": 8560,
      "teumee": 8561,
      "awam": 8562,
      "geupeuj": 8563,
      "geutulong": 8564,
      "khalis": 8565,
      "##eubeuen": 8566,
      "##elola": 8567,
      "trom": 8568,
      "##idh": 8569,
      "##idali": 8570,
      "##idabida": 8571,
      "tuot": 8572,
      "tuho": 8573,
      "##orat": 8574,
      "droedroe": 8575,
      "abe": 8576,
      "abbas": 8577,
      "##ollah": 8578,
      "##olloe": 8579,
      "##olitik": 8580,
      "lheuch": 8581,
      "bansaboh": 8582,
      "bandung": 8583,
      "bandara": 8584,
      "neuw": 8585,
      "##ace": 8586,
      "asam": 8587,
      "uroenyan": 8588,
      "syuko": 8589,
      "syeetan": 8590,
      "bohboh": 8591,
      "##uwo": 8592,
      "##uweh": 8593,
      "##uweue": 8594,
      "mante": 8595,
      "##ese": 8596,
      "##kuat": 8597,
      "indep": 8598,
      "geuplah": 8599,
      "geupujoe": 8600,
      "jitupat": 8601,
      "jituleh": 8602,
      "makara": 8603,
      "meuth": 8604,
      "meutani": 8605,
      "##angket": 8606,
      "##angkaba": 8607,
      "##angkasoe": 8608,
      "##angkasangka": 8609,
      "meulikot": 8610,
      "konkon": 8611,
      "dijok": 8612,
      "dialek": 8613,
      "dijajah": 8614,
      "diameter": 8615,
      "bre": 8616,
      "##odelan": 8617,
      "peurab": 8618,
      "kamal": 8619,
      "meusar": 8620,
      "meusangkot": 8621,
      "meuseureub": 8622,
      "ekstensi": 8623,
      "perele": 8624,
      "perhit": 8625,
      "pertanian": 8626,
      "perjanj": 8627,
      "padee": 8628,
      "padit": 8629,
      "keureul": 8630,
      "adegan": 8631,
      "mupeu": 8632,
      "penglih": 8633,
      "berita": 8634,
      "meuhoe": 8635,
      "jiputa": 8636,
      "jipinah": 8637,
      "seumeun": 8638,
      "seumeul": 8639,
      "seulasa": 8640,
      "##eupue": 8641,
      "masjarakat": 8642,
      "teungohteungoh": 8643,
      "krit": 8644,
      "sampor": 8645,
      "geumeut": 8646,
      "geumbira": 8647,
      "komersi": 8648,
      "meukilat": 8649,
      "taneuk": 8650,
      "indonesi": 8651,
      "binh": 8652,
      "keudjadian": 8653,
      "manaj": 8654,
      "timor": 8655,
      "##trin": 8656,
      "##trep": 8657,
      "tameus": 8658,
      "tamiang": 8659,
      "##lamat": 8660,
      "geuklik": 8661,
      "lako": 8662,
      "geuhukom": 8663,
      "peunulang": 8664,
      "pala": 8665,
      "palang": 8666,
      "jijakjak": 8667,
      "beuri": 8668,
      "beuget": 8669,
      "beujroh": 8670,
      "ment": 8671,
      "pener": 8672,
      "pencar": 8673,
      "mater": 8674,
      "taktok": 8675,
      "takdir": 8676,
      "beutoy": 8677,
      "##ambi": 8678,
      "##ambil": 8679,
      "apam": 8680,
      "apuy": 8681,
      "apapun": 8682,
      "apolloe": 8683,
      "jimeung": 8684,
      "tapula": 8685,
      "taprang": 8686,
      "sikap": 8687,
      "geusangka": 8688,
      "geusudi": 8689,
      "geusambong": 8690,
      "##cipt": 8691,
      "bace": 8692,
      "jibalek": 8693,
      "##angani": 8694,
      "pemil": 8695,
      "pemodelan": 8696,
      "bug": 8697,
      "bueh": 8698,
      "tatamong": 8699,
      "##dekatan": 8700,
      "akhlak": 8701,
      "##ente": 8702,
      "##entukan": 8703,
      "seund": 8704,
      "seunaleuek": 8705,
      "meubalek": 8706,
      "jamok": 8707,
      "teukeubah": 8708,
      "badar": 8709,
      "badee": 8710,
      "meuputaputa": 8711,
      "keumiet": 8712,
      "keumuen": 8713,
      "daftar": 8714,
      "eungket": 8715,
      "galaksi": 8716,
      "siber": 8717,
      "blangblang": 8718,
      "musuh": 8719,
      "biologi": 8720,
      "##loeb": 8721,
      "meugasui": 8722,
      "beuleuen": 8723,
      "beuluka": 8724,
      "##utanan": 8725,
      "panteue": 8726,
      "ujoe": 8727,
      "coklat": 8728,
      "geupeuteuntee": 8729,
      "neupeutrang": 8730,
      "muploh": 8731,
      "tuhanku": 8732,
      "baba": 8733,
      "dituleh": 8734,
      "ditulis": 8735,
      "peumerintah": 8736,
      "##eujeumah": 8737,
      "keudroegeuh": 8738,
      "sapha": 8739,
      "teupong": 8740,
      "houtman": 8741,
      "seurikat": 8742,
      "silingka": 8743,
      "sileupah": 8744,
      "tanyoee": 8745,
      "geureuda": 8746,
      "jisurak": 8747,
      "tarian": 8748,
      "tardj": 8749,
      "mardehka": 8750,
      "stasi": 8751,
      "stabil": 8752,
      "teken": 8753,
      "##uroenan": 8754,
      "serb": 8755,
      "sabansaban": 8756,
      "key": 8757,
      "keamanan": 8758,
      "##enden": 8759,
      "jiduk": 8760,
      "shik": 8761,
      "##seq": 8762,
      "meuculek": 8763,
      "tubiet": 8764,
      "mise": 8765,
      "dipr": 8766,
      "dipoh": 8767,
      "dipubuet": 8768,
      "jilop": 8769,
      "modal": 8770,
      "peungajaran": 8771,
      "beukeunong": 8772,
      "##mate": 8773,
      "##jadjah": 8774,
      "minangkaba": 8775,
      "neubi": 8776,
      "neubloe": 8777,
      "juem": 8778,
      "majid": 8779,
      "saheh": 8780,
      "hasejih": 8781,
      "mubalek": 8782,
      "mubaleqh": 8783,
      "##ive": 8784,
      "##ivasi": 8785,
      "##angkaho": 8786,
      "subhan": 8787,
      "kutok": 8788,
      "bideung": 8789,
      "bidari": 8790,
      "beunuwa": 8791,
      "euncit": 8792,
      "keno": 8793,
      "keneng": 8794,
      "selang": 8795,
      "selaen": 8796,
      "teupeut": 8797,
      "jrohjroh": 8798,
      "benci": 8799,
      "kampanye": 8800,
      "bloepubloe": 8801,
      "leuho": 8802,
      "dukong": 8803,
      "cahaya": 8804,
      "##format": 8805,
      "##forward": 8806,
      "kubang": 8807,
      "jokow": 8808,
      "##laq": 8809,
      "taci": 8810,
      "tacalitra": 8811,
      "tasy": 8812,
      "tasaw": 8813,
      "angkasa": 8814,
      "deleng": 8815,
      "meuenmeuen": 8816,
      "geujep": 8817,
      "geujeungeuk": 8818,
      "tunang": 8819,
      "geupeurati": 8820,
      "jamboe": 8821,
      "geucuba": 8822,
      "kesatuan": 8823,
      "geugalak": 8824,
      "kemungkenan": 8825,
      "diboh": 8826,
      "peubaroe": 8827,
      "lambang": 8828,
      "lambaro": 8829,
      "lambaroe": 8830,
      "dinaih": 8831,
      "jigantoe": 8832,
      "langsung": 8833,
      "langsoeng": 8834,
      "##izi": 8835,
      "baleen": 8836,
      "##intaan": 8837,
      "negeri": 8838,
      "##edaan": 8839,
      "tapaktuan": 8840,
      "koleksi": 8841,
      "lawang": 8842,
      "pilehan": 8843,
      "##amiin": 8844,
      "geupeukureueng": 8845,
      "dhoe": 8846,
      "almustaf": 8847,
      "praktis": 8848,
      "tengoh": 8849,
      "meukeusudjih": 8850,
      "dakwa": 8851,
      "didjak": 8852,
      "jijaga": 8853,
      "##proyek": 8854,
      "labang": 8855,
      "poteu": 8856,
      "poteuh": 8857,
      "##ibatkan": 8858,
      "eksperimen": 8859,
      "##idae": 8860,
      "purwa": 8861,
      "lazemjih": 8862,
      "hijo": 8863,
      "efektif": 8864,
      "tungang": 8865,
      "jipeuleumah": 8866,
      "##fikasikan": 8867,
      "rangkayan": 8868,
      "pilihan": 8869,
      "otonomi": 8870,
      "keusalahan": 8871,
      "proyekproyek": 8872,
      "tantangan": 8873,
      "sanib": 8874,
      "thoun": 8875,
      "sesat": 8876,
      "##ows": 8877,
      "permintaan": 8878,
      "mutia": 8879,
      "wisatawan": 8880,
      "lubo": 8881,
      "tobat": 8882,
      "kukalon": 8883,
      "gateng": 8884,
      "gelembung": 8885,
      "organisme": 8886,
      "beumeut": 8887,
      "perkembangan": 8888,
      "geumeulayeue": 8889,
      "kekuatan": 8890,
      "tentra": 8891,
      "dalidali": 8892,
      "tingkap": 8893,
      "##zhab": 8894,
      "lhoekseumawe": 8895,
      "peureumoh": 8896,
      "dabeuh": 8897,
      "geuproses": 8898,
      "statistik": 8899,
      "meujanji": 8900,
      "sungue": 8901,
      "sunglab": 8902,
      "##uzub": 8903,
      "jimeulawan": 8904,
      "caci": 8905,
      "fiqh": 8906,
      "dimiyueb": 8907,
      "ikhe": 8908,
      "##ogenesis": 8909,
      "jelah": 8910,
      "deureuham": 8911,
      "##valuasi": 8912,
      "syafi": 8913,
      "bisnis": 8914,
      "keureuja": 8915,
      "jipeuhase": 8916,
      "luwaih": 8917,
      "sikeujab": 8918,
      "leuser": 8919,
      "saidina": 8920,
      "meulangsong": 8921,
      "mndum": 8922,
      "hiperraksasa": 8923,
      "##script": 8924,
      "meuakhe": 8925,
      "famili": 8926,
      "tabiat": 8927,
      "syedaga": 8928,
      "konveksi": 8929,
      "##gronje": 8930,
      "ekstrem": 8931,
      "kbn": 8932,
      "geufokus": 8933,
      "makhluk": 8934,
      "neupeuhareuem": 8935,
      "almukar": 8936,
      "peurdagangan": 8937,
      "linier": 8938,
      "resiko": 8939,
      "meureudu": 8940,
      "masyhur": 8941,
      "nelayan": 8942,
      "feedforward": 8943,
      "sipeureuti": 8944,
      "pengangguran": 8945,
      "termasok": 8946,
      "seqseq": 8947,
      "mempengaroh": 8948,
      "kemerdekaan": 8949,
      "okhotsk": 8950,
      "wslm": 8951,
      "keukuatan": 8952,
      "peunoeh": 8953,
      "meuseureuban": 8954,
      "perhitungan": 8955,
      "perjanjian": 8956,
      "penglihatan": 8957,
      "pencarian": 8958,
      "tardjuman": 8959,
      "almustafid": 8960
    }
  }
}