[PAD]
[UNK]
[CLS]
[SEP]
[MASK]
a
b
c
d
e
f
g
h
i
j
k
l
m
n
o
p
q
r
s
t
u
v
w
x
y
z
##e
##u
##p
##l
##n
##g
##o
##t
##a
##k
##w
##h
##i
##s
##d
##b
##y
##r
##v
##z
##m
##j
##c
##f
##q
##x
##eu
##an
##ak
##ng
##oe
##ang
##at
ny
##am
##ah
##on
##eh
geu
##oh
meu
##eue
##ar
##ab
ji
keu
##al
nyang
nyan
##en
##as
##ee
##euh
ka
si
##ong
teu
ng
##ek
bak
##roe
ac
ngon
##er
##in
##um
peu
la
##ai
aceh
##ul
na
##ay
##it
##et
han
##eng
##ot
##aj
##om
lam
##ok
##si
sab
##peu
##ad
le
##ur
##ih
th
##eun
##ny
##euk
ur
nak
##aw
hana
##ut
##ik
##and
nakeuh
##eueng
##em
##uk
seu
##amp
##ap
##up
##eung
##im
nyoe
##ant
ureueng
##ag
at
an
saboh
##eut
##un
pr
that
##us
##il
##ib
##euet
##op
##eum
##ud
##ub
in
##angg
al
##ir
##any
jih
lag
teum
aw
##nyan
meun
##ung
geupeu
##eueh
##jak
##is
geut
##gah
kh
gamp
##ing
##eub
##ob
##ara
##lah
##el
tr
##id
lon
aneuk
##jih
##awa
tu
##ra
##ju
##ep
##euen
##or
droe
nangg
ray
awak
lom
ab
##ol
##asa
nanggroe
lh
bar
##sa
ul
##aja
##oen
ban
##ue
teung
nj
wat
##eul
##asi
##ri
nib
nibak
band
jeuet
kab
gob
neu
teuma
pih
##upat
##ac
##ama
lagee
cit
as
bek
##atan
watee
##ata
uroe
kabupat
kabupaten
sy
gampong
boh
##sia
meunan
##droe
jak
##uw
mant
##eb
ta
##oeng
##kh
laen
##es
##ueng
##ku
atawa
##ia
laju
##eur
##uet
##int
ind
##uek
rum
##noe
raja
geup
geub
meuny
mal
jit
##insi
mak
##ana
bah
meut
##angk
meul
kon
meur
gobnyan
##ed
##ya
is
di
yg
br
pul
##od
peur
hai
##iet
hab
kam
##anyoe
mantong
nan
rumoh
deung
ub
##ayah
meus
##agoe
##aya
sidroe
thon
##ha
ek
per
##pat
##nt
bang
pad
##ui
keur
##alon
rak
peue
ad
pak
prop
mu
keun
##ja
ag
peng
##ungk
##ga
ber
kay
propinsi
ph
meuh
sal
##oeh
put
##ump
jip
##ayang
haba
##eud
lheueh
njang
##andum
seum
kar
sabab
jinoe
##uda
oh
seul
##eubeh
am
##eup
##yah
##ka
##ase
##esia
mas
##og
raya
teungoh
peugah
jipeu
kr
kheun
kah
##got
##cam
##kan
samp
geum
kom
keuh
meuk
##uri
tan
leubeh
indon
bin
ie
##ie
mandum
geujak
keud
bandum
##os
##oi
njan
man
geutanyoe
gampoeng
indonesia
##na
jeut
##camatan
tim
ut
##tr
pulo
##ingg
gop
kap
tam
bl
bul
prang
##lam
##ian
keucamatan
ar
##ua
sig
##oet
ma
meunyo
##anda
ureung
geuk
##ita
lak
##bagoe
rayek
geuh
teungku
peun
teumpat
##anyong
##angat
il
##keuh
##euna
pal
jijak
##ti
##uh
beu
men
pen
deungon
##euek
allah
muda
mat
tak
kamoe
peul
##ji
pan
##man
ayah
beut
tuha
##ula
##uwa
pat
basa
##amb
sampoe
ch
geud
har
##cok
ap
##uta
dar
soe
##wa
buk
jar
sabe
gata
ku
baro
bat
sira
##inggai
geul
um
##kheun
buet
nang
##yat
jim
tap
abu
##heh
inong
ulama
kal
##ari
leum
ram
su
phon
##eg
pu
sik
islam
##le
geus
##ov
troh
banda
##ci
##ta
##han
mangat
bac
mer
gopnyan
##rah
jib
##eus
##angan
acheh
##woe
laot
bal
##iy
ud
##uleh
##nan
awai
jik
buleuen
pem
ti
beur
pang
##wan
##jeuet
##anyang
dil
peut
dr
bu
rakyat
##ina
tat
##gr
ang
kayee
##ei
##dek
##unoe
teut
akh
##aih
droen
##aga
##ali
##ent
##ajoh
ak
salah
##alam
agam
##li
wil
##eueb
don
##ug
timu
teunt
tapeu
dum
##rang
##jeh
##uka
pid
jawa
##akat
##ika
##lom
keub
seun
##geuh
rot
##tan
meub
##asan
##deka
##alak
gad
##ajih
##uan
##abi
jam
##gara
abd
nyo
meunyoe
ateueh
putroe
lage
ulee
teuk
barat
de
##ham
##jar
trok
donya
sing
bangsa
##duek
un
malam
bant
gam
wilayah
bad
tg
##ajah
baroe
paleng
nek
##ike
bansa
jaroe
meup
droeneuh
sul
##amah
geupeugah
##aka
teuka
par
##ch
##oek
geukheun
tinggai
mata
keum
##ern
##esi
##ala
agama
##ati
tok
##heun
da
kheueh
##usia
##aweueb
##dang
sip
keudeh
krueng
##imong
tgk
##ajaan
##ureueng
rayeuk
kat
kayem
pidie
kheuh
bacut
taj
##dong
dayah
ih
po
suk
eungk
##iban
##imp
##unong
keul
blah
tanyong
##eug
##itas
tanoh
##among
rim
##st
##mad
##umat
thoen
lhee
bereh
##lueng
##iah
galak
sib
dj
##ahe
tur
blang
akhe
mus
##da
##eumee
pa
sit
keurajaan
##alan
ngen
bi
##loe
lagu
##roh
meug
merdeka
beul
##ubuet
nabi
##ip
pus
tab
meud
geubri
sim
sak
##emb
abeh
rakan
bir
mita
##rak
ter
##yan
bineh
##atu
##ieng
tuan
tul
##utan
##anj
##apat
pant
sam
uj
##awan
atjeh
##uwah
ngoen
ate
dilee
bangai
pase
tal
beung
##isi
nanggroejih
##into
##intah
ion
##uen
##yue
cok
duek
##adum
geupeut
##he
seumayang
teub
seuot
peureul
kapai
bag
pol
geung
lheuh
sinan
pas
##eungo
aneuek
teuh
##ohlom
neupeu
udep
pue
sur
sol
##deh
eungkot
get
pe
##lim
mup
ateuh
##era
tuhan
peuk
bahsa
mate
##seul
##ind
bab
##ira
awaknyan
dit
hat
##br
peum
##uss
##ingk
##euj
##atang
##agai
##put
##get
prov
el
##aki
pi
##hat
##akee
geupeugot
sikula
gur
##co
keudroe
##eumeung
sap
##aran
teup
provinsi
ho
lang
##ullah
seur
leup
sa
##ef
##hah
ri
sil
##ajan
##antoe
padum
inan
tanyoe
##oy
geur
teutap
##ou
##tur
##yar
jis
##ikot
ist
rame
car
im
##ba
keunoe
loen
##iek
buku
gl
luwa
peus
##eudoh
kareuna
##jok
kaw
keuraj
ras
##ahan
##ont
seubagoe
woe
##pok
dara
##din
##euem
teun
meny
gadoh
deuh
tar
##ig
##aboh
##inan
##nyoe
##euta
geungui
mar
##ki
unt
##uran
##opul
##seulam
ci
sang
asai
geukalon
##aen
bint
##ma
lap
bud
se
st
med
sj
ubak
kul
mah
tek
##uroe
rimueng
neuk
manusia
kalon
wate
beutoi
rup
alam
cut
ib
rab
ser
lamp
int
jeun
asci
pakon
##ungken
ascii
##awen
##irah
##ingat
keunan
panc
tiep
naga
seulatan
sagai
saban
neugara
meutamah
dis
huk
ing
ke
##end
bandua
##umpadum
keurajeuen
kuta
uk
jid
solutan
rh
syah
ilee
bung
puk
##umpok
##alah
ija
miet
siat
dipeu
##yarakat
baj
jaya
##alem
##udoe
##eubiet
en
sh
sumat
##ort
sukee
ik
##se
##urot
##jarah
pl
geuyue
meuc
nyankeuh
padumpadum
tub
##ram
##ikan
trep
meuj
muham
lee
ulon
laks
##hon
meung
mis
panyang
sun
war
bum
eseulam
ui
##af
##ro
##oem
dip
##odo
muhammad
jil
gunong
ker
mod
##ussalam
peung
##ada
tajak
beuk
##mat
ureng
badak
sar
##eunt
leupah
##hee
##erah
##ileh
syar
gaki
linto
##lon
gle
yoh
sultan
##impin
##arit
teuntra
##jad
alat
komodo
kajak
jameun
##stem
inggr
min
payah
##joh
##angsa
masyarakat
meusi
uteuen
banta
turing
##lima
bintang
dudoe
got
seub
dik
neub
sem
##ij
sibagoe
arab
##qu
it
ju
kana
maj
##sasa
##ongan
##eubah
##iyoh
ah
mirah
neuh
sah
##ans
panglima
hase
kur
pah
lahe
rus
sp
##bah
##ukop
mub
treb
beulanda
##iv
##angkat
pade
##akan
##aseng
pakat
asoe
but
cu
##onal
seup
bahasa
inggreh
##lik
##ast
##umb
bireuen
jalan
mud
##jeut
##peugah
jitamong
bagah
manyang
sup
istana
mot
##ran
sistem
##angkah
pusat
had
dewa
ba
kup
sub
wali
##usi
hate
kut
##reh
deungoen
peuland
saket
bid
##ulia
ali
treuk
tangg
##uem
takalon
singoh
cukop
neut
pung
##eumah
##ache
adoe
umu
kak
geucok
meubagoe
##alit
puteh
djih
on
##antu
##hai
kawan
##itab
saw
##ni
port
tujoh
meurumpok
keuneuk
beun
eun
##yang
teur
brat
##ugeh
lem
bel
bunoe
mungken
tad
##anc
##ungan
jipeugah
komput
pante
limong
##olog
abdur
kel
##joe
kad
atra
##kah
peugot
amir
pancuri
bumoe
##ale
peud
##ayu
ilm
taloe
bungong
ken
##ayat
##opulo
gen
##tor
##hom
##heueh
geuwoe
##awang
lakoe
apache
beuet
jeh
sel
##oed
##asin
pulopulo
##nteng
peureulee
carong
jeuneh
pajoh
us
ya
geun
##enyan
##eran
##aji
##ikat
njoe
mualem
leumo
laksana
meuhase
maseng
keue
kir
poh
rah
##san
keunong
##ektur
##ikh
meurah
keureuna
geulayang
ujong
bit
gub
kiban
peuet
tem
##anan
teupeu
##erasi
##nya
batee
jioh
##asah
peukan
neup
me
muk
pun
waj
teul
##eume
alue
geupeul
uleue
##angka
bet
kl
mur
##wah
iheueh
surat
lad
meunurot
teuntee
babah
##igoe
id
##riban
##umoh
##aca
samud
##ologi
kitab
##aba
##ubloe
meukawen
darussalam
be
##aa
jikheun
##rahman
##alitra
bui
god
gohlom
jaw
tom
##peue
##uddin
##olom
daerah
portugeh
jaweueb
jroh
meng
miy
so
kaya
peuny
peunteng
##ota
##andar
pakriban
kas
##loh
kameng
pasi
pawang
##ter
##ani
lawan
##ode
ben
kamp
mem
toe
##ers
leman
ubit
utara
tamong
sumatra
paya
##bl
jiwoe
binatang
geuduek
bub
jan
nyak
seut
ureuengureueng
geuba
beungoh
tuboh
eh
narit
##isa
##ogram
bloe
dai
fil
leuh
mon
mel
tj
##no
##eungoe
##uwoe
lakee
guree
godot
duk
laoet
##awi
cah
jeup
nas
##jah
##for
meum
##inoe
##ernur
hind
roh
kub
##rop
##adi
##rija
hukom
bagoe
jok
ok
rap
##la
##aman
##ila
##isah
geuboh
meusen
batik
pajan
##amat
##asis
##aik
##illah
##asional
ube
moto
gu
go
hak
##uf
##inah
##awe
##una
part
jeum
tut
yasin
##aket
##euhi
sir
pref
##udi
baroh
meuloed
maseuhi
lampoh
hasan
sep
##ho
##ii
##arang
##asoe
##angga
lhok
pend
puasa
pegah
dairah
glah
langkah
tac
##euoh
jicok
##juang
adak
sapeue
seupot
fad
lat
tas
wangsa
##ron
angk
univ
##eugom
paus
bg
luwah
##cem
sid
mantap
del
fat
##ukong
##tif
chik
rasul
komputer
abdurrahman
gubernur
prefektur
##wo
makm
meuligoe
lua
tah
meuen
manok
rupa
beuna
do
yah
geuj
siuroe
alah
amp
keubeue
seud
seunang
buta
pap
##onan
##arga
jiplueng
pane
kee
nam
tun
tanda
tunong
##pa
##arta
##alang
peug
geupeur
peureulak
mudah
aju
jum
jamb
kun
muka
##eupeu
##onom
##ail
teunggara
##acam
end
sare
kureueng
likot
met
##aku
keudua
abdullah
##ingkat
##eikh
##erintah
##anyan
habeh
wajeb
mek
##uah
geuc
##udep
##iro
ubeut
aman
darah
dron
spesi
bay
##gan
##hi
##alis
inoe
##elit
sigohlom
polit
univers
bungk
hek
kes
tik
geug
##arat
neuduek
apui
toke
peukara
calitra
##aha
##ena
##errak
##ulang
malee
darul
##erraksasa
djeuet
kuw
ruk
##cara
meurunoe
##ianat
puko
hay
sen
troe
##su
##yoe
##arah
##aseh
##ubah
geupeus
asee
##amba
dajah
kota
##vi
##agi
##anyo
syiek
leumoe
jikalon
dro
akhejih
seureuta
amirika
partai
deng
ham
kem
keb
rep
##eo
keup
##euneuk
ubat
balee
tapeugah
ket
pand
##ato
amin
peund
budaya
##asiswa
endatu
iam
jad
nur
or
pik
##ea
##if
acara
##unan
##ueb
india
##edara
sigo
baca
untoek
dam
dib
daya
hir
km
##pih
##te
##akot
kadang
peub
##uli
##eukat
##bahyang
asia
hor
saweueb
##uarga
##troe
##ult
lamb
##ust
seumbahyang
bajee
af
bhah
ked
ne
##uny
##eulah
##arek
##aleh
sideh
ramah
##onomi
dang
gr
jaga
##oo
##euka
program
pemb
beureugom
angen
eleumee
medan
tekn
eump
##bak
##maseng
##ca
khus
barang
penelit
chit
akai
masengmaseng
miyup
din
has
kor
mil
nya
##abr
teuga
##ith
##urat
leumah
##eusud
mahasiswa
superraksasa
peulandok
rusia
##ain
jir
sin
##ukan
##upeue
meukat
beungeh
jeupang
hub
sk
tang
##lan
##hh
jig
##alat
##alek
##anto
##ingan
abuwa
jakarta
malay
isk
komp
siblah
muprang
langs
##ses
teuku
preh
##ungg
dig
##iz
##jan
##aroh
##irem
geutanyong
makanan
aduen
bale
kupi
iskandar
beud
data
hna
jai
obl
pup
pike
re
tuleh
##oga
geujok
##eunak
peurumoh
intern
oblast
neum
##kar
##asar
##imang
##eumpok
##inta
malik
##uhan
pemerintah
sequ
cahya
jur
neg
pubuet
sayang
yo
##egah
##aat
##sy
##jid
kajeuet
neujak
##eda
musi
phoen
##eupeue
tapak
daud
dim
peuh
##ic
##zak
##abe
##abat
##omb
meuntroe
##ingka
keude
kalim
##jadian
malaysia
haji
kol
##uju
##rok
##jajah
##ahai
##oses
beus
cicem
model
bri
majih
op
up
##hu
##akira
##ubat
ase
kuala
riw
seubab
fit
pom
pel
##ual
##ake
jiduek
teug
syedara
adat
geuseum
cot
kep
let
pis
##ikah
ins
uleh
deungo
putoh
teks
maju
kirakira
ladom
bue
goh
many
sagoe
wal
law
droejih
jipeugot
ahli
samudera
peunyaket
##form
universitas
pinto
##teuh
##den
##nyo
##anduri
##usan
##isan
##juangan
##ori
abad
makna
ekonomi
badan
##ipina
kampus
beh
jag
pet
pileh
##min
##euot
keut
##euha
##ura
##agah
meunasah
geutem
maken
puleh
padahai
geudeungo
geulakee
abdul
##anjoe
cuco
tanggai
hireuen
sequo
cina
long
yum
##re
##anja
##ami
teus
##uba
##idah
teukeuj
kawom
jilakee
hant
geupeuk
tuwan
##rip
meuteumee
tulot
betoi
kuwasa
sequoia
gith
joh
##aloe
aneukgeuh
##juan
##oll
##eurintah
kons
meureumpok
##embang
miseue
penelitian
github
cont
fak
gun
juta
tiro
yeng
##nam
##tt
##sat
##dian
peuingat
##eungoh
syeh
komdian
singk
##euntee
ceud
dh
say
tuk
##yak
##unt
geutanjoe
##asien
seulaen
amer
##tiep
bala
tieptiep
bh
mad
sw
sajan
##bo
jino
##aid
##ayan
##ajat
##ajaran
##euki
seucara
##apan
##agang
alm
geupeudong
syari
jipeut
utama
serangga
hal
ir
ran
samb
##bb
##euhu
##ilah
geutuleh
trieng
ass
keuhai
##tron
teutab
sunat
filipina
beuh
goe
tari
##jo
jiek
##alog
ant
syit
karu
china
pusaka
##eujid
rasulullah
spesies
pisang
gasien
te
##fi
keurija
prak
geuturi
teungeut
binoe
kuasa
jiba
bijeh
imum
media
kulet
syarat
langsong
amerika
dji
jeuoh
teng
tand
viet
##jata
meugah
seug
##acut
peuepeue
peny
biram
dir
gaseng
hik
him
os
##cut
##aneuk
meujak
sabee
##eumang
##eubit
droegeuh
meulayu
umar
simp
vietnam
hi
hudep
plueng
sinoe
teudong
hanjeuet
##okan
seung
##apu
##upa
##iran
##ist
bandar
asay
raksasa
muang
sampe
meukeusud
sigra
neukheun
bong
dak
did
gajah
##jang
##cah
##ania
##ekan
seudang
seujarah
meunang
##oran
peunajoh
keubit
gadeng
disinan
jideungo
##unyok
jagong
pin
##uj
##uih
##mi
meuy
teuingat
peuget
##eutoh
##eumeu
alq
##eubot
tujuan
malem
makjih
##atif
siploh
itam
tacok
jadeh
des
sc
sek
tingkat
##lo
##anga
##allah
kaj
##otan
the
meunoe
##idikan
tug
##oder
meusapat
darat
else
peulandoek
##vier
elsevier
koen
raj
##pe
##gn
##ren
jij
##asil
##ume
##ism
##est
##eurimong
die
saleuem
seulaw
komun
blanda
beuta
geudukong
beureueh
troek
duwa
orang
##pr
##lm
##go
##tok
##cak
##akek
##emen
##istr
meuseujid
paleh
##jaran
ihee
rimba
meuceue
pungo
janji
tuwanku
ge
hid
koh
lab
pot
popul
sm
vid
##uga
##guna
##heuh
##rika
##zem
jieh
##asajih
saba
##ikasi
##aguen
##ublik
awan
geubantu
jiteubiet
perjuangan
padang
ahmad
ceudah
ha
jeur
mes
##thai
##ww
##saboh
##ban
##mud
##araja
##ayi
ata
presi
##ibat
##ibee
##eumat
tueng
syek
manteng
muzak
ujeuen
sjit
rhot
afrika
teknologi
negara
muangthai
em
for
leuen
mou
mulia
##oc
##yo
##yik
sie
teud
##iri
geupeunan
syik
mantoeng
indra
indatu
geubeudoh
meulatang
eks
jipajoh
talo
tadeungo
generasi
fadlon
jambo
beudoh
gara
##uu
##lat
##leh
##lawan
##gol
##ouh
jic
##aju
khanduri
##ida
geupula
admin
sigoe
jamee
meuprang
token
untok
ploh
doa
bil
com
ip
jeul
mun
nasional
pur
seb
##lak
##lih
##kw
##mandum
##cit
##feuet
keujadian
kajeut
##ersi
analog
seumangat
takheun
hareuem
##grak
bantu
keulhee
tulong
teubiet
kawasan
rhet
teurimong
gay
lok
mo
taw
##bat
##boh
##ompok
##adj
##adisi
##irin
meuninggai
bahan
kontr
jipoh
##osan
jibeudoh
##eusoe
pasokan
miseu
contoh
dok
djak
hr
lump
niet
##of
##hana
##men
lazem
trans
neus
manoe
pemimpin
muslim
simeul
tuanku
neupeugah
langet
##oyek
raseuki
ukeue
neubri
semoga
butoi
laten
presiden
muzakir
az
bent
gar
holl
ki
kisah
lum
tit
wa
##ge
##fah
##abeh
ngui
##ulong
aleh
##ele
tradisi
lont
male
taman
geuhnyan
teutapi
sjeikh
sumatera
modern
politik
simeulue
co
det
kop
tanyo
yat
##uy
##coder
meuri
##euep
##ensi
hanjeut
##eukah
##apa
proses
lagak
paneuk
geudong
bonggol
hah
hon
pbb
reul
##lee
##eugah
##asai
##ulee
##nyang
##ageuh
kha
droekeuh
meurasa
takue
anggot
guru
##onton
ukeu
ruslan
pande
dangd
administr
bend
reun
sant
tai
##au
##kap
peusi
##sis
##anggroe
abus
jitanyong
##angke
deungoe
meuhat
tatuleh
syarikat
melayu
makmu
bungkok
hantom
anggota
hij
jab
lingk
mand
##hal
##cu
sabirin
##adap
##eutah
banmandum
malaka
arah
meriah
muphom
beude
simpang
ajaran
ef
kri
set
tung
##rap
##coe
##akna
nanggro
meulaen
ubah
perhat
seulama
jipeul
utak
##cien
jikeumeung
euntr
kubu
internasional
riwayat
es
idin
jet
jud
sad
yue
##eeh
##war
##iaga
##bang
##fik
##ame
##ayeue
##ili
lagoe
tuwo
meunankeuh
geupajoh
##eder
meusy
geumat
geudeungoe
leumoh
##eugat
miny
##quot
geupeuleumah
murid
jaweub
##ultas
gayo
dangdeunak
keh
li
lingka
rangk
sus
##nah
##gh
##ial
##ehat
##alo
kag
kapeugah
##itan
##ajoeh
##ima
##ilai
##opus
##irat
geupeup
geupeub
uloen
##aceh
##kuasa
##angkan
ism
pert
keunarang
sigom
ayahjih
##egi
bantuan
keuluarga
geupeuteubiet
mukim
samudra
tutong
fakultas
populasi
ayat
gamba
kan
manga
piyoh
ru
ret
roet
rug
radi
tp
##son
##aho
meupeu
##antung
anek
pruet
##anggang
geupike
geubloe
brok
nanjih
pakek
kaleuh
##chik
pahlawan
ilme
rahmat
bener
jumeulah
##ttp
hollanda
dih
guda
kode
lint
leugat
nus
peh
pil
ra
red
##kri
##ateh
geuek
##aban
keug
keupeu
##eed
##agu
##eutoi
bahpih
meutuwah
kaphe
kali
angg
keumeung
panton
ikot
mubagoe
seutot
pendidikan
kuneng
seugolom
video
perhatian
cap
dep
dasar
et
gab
juli
neul
ot
wie
##lek
##land
##ae
##hen
##sk
keus
##adat
##euti
proyek
aleuh
trang
baroeh
##oena
geupubuet
meuteumeung
seulat
##rahim
##greb
aktor
keulayi
sibak
##anjut
polem
langsa
menyo
tarek
bude
sejarah
belanda
kelompok
operasi
scopus
cat
dgn
ger
mum
no
nkri
pes
publoe
tant
tib
##lok
##kon
##har
##dul
##air
##ade
##utoe
##unang
geupeuget
geutamong
rumania
jitem
karak
maul
geukirem
jibri
tieb
musem
kakeuh
sireuta
kolon
administrasi
ismail
gog
lah
peg
##http
##vol
##jinoe
keulom
sis
##ilu
##ilan
alham
##khianat
ubena
pungg
mekkah
manyak
hikayat
alquran
yatim
keulompok
aulia
boeh
iel
jen
mam
reus
romb
san
ts
yam
##ueh
##per
##nal
##keu
##iyah
##bar
##balang
##zah
##euhei
##adu
##utub
geupeug
##ola
kont
geumita
ile
umat
peutimang
teuntang
peumeurintah
gleh
rupari
bideueng
teulheueh
delat
rukon
hubongan
bendera
karakter
golom
luah
rek
sok
vol
##eih
##oeu
##kk
##jalan
##ektif
##ihan
tho
##ampok
ule
asli
syeikh
geupeuh
brbr
##truk
sigam
sukses
kuliah
ilmiah
meumakna
horor
lokal
jabatan
##volusi
cuba
erop
hoe
kong
kil
yan
##njan
##that
##sang
##seum
##jam
##jit
##caya
nyangka
teumakot
khali
##euli
salam
karna
seulamat
keudee
kapit
penjajah
sikureueng
sulotan
teupeue
lapan
wateenyan
bube
abusyik
euntreuk
dat
dom
hus
iz
ja
mul
pir
pabr
##oa
##kat
##wat
##sah
##aro
##eek
siny
teuduek
##ulan
nagan
hanale
##adah
##emat
##antara
tron
aseuli
meutuleh
meulaboh
jipiyoh
utk
beuthat
suci
udeb
drama
##rakan
menyoe
euncien
mukh
republik
assalam
rombongan
cer
hy
ier
kud
log
mong
nal
pag
rueng
ses
sumb
tel
tungk
wahe
##osi
kaf
kapeu
nag
##ite
##eunoe
##ileueng
malek
kamo
meusaboh
meuhub
karab
##troh
tamat
buleun
haraih
undang
glayang
kawe
ibrahim
##jadi
nyakni
##jaht
##aikum
pikeran
href
maulana
eropa
fir
qu
qur
sos
ucok
wab
yak
##ec
##ow
##aksi
geusi
##eri
##ukoe
and
aloh
neug
meuteume
breueh
perm
adek
pakri
pengembang
peulara
uleebalang
singa
bayeuen
politek
minyeuk
gogasi
##oeuroe
hrefhttp
aj
bog
cinta
dada
gaseh
hn
lu
lik
mut
mubuet
reubah
wis
##ll
##gia
##zal
##cana
##atoe
##ona
##roeh
##oto
urueng
##orit
geumeu
geukeubah
mend
jimeu
musoh
pasai
##ussaleh
peusangan
hukoem
skula
malikussaleh
beusoe
lingkungan
eseuk
rugoe
ieleume
##seumawe
cangg
cor
doe
deh
dek
dlm
hel
kama
mamp
nik
##heuet
##di
##res
##jara
meuah
jidong
ladang
##andang
##emp
##ampu
inoeng
meuniaga
meulaka
meurantoe
peureud
perangkat
putri
massa
geumeuk
ileumee
beug
kueh
tapeugot
lageenyan
iheuh
##mada
sunda
beukuem
kadhi
dame
poma
teukeujet
syariat
nusantara
alhamdul
punggong
reusam
izin
bogor
eseukanda
ceur
jangka
lub
pt
tob
##hoe
##bit
##rek
##jong
##eksi
##adang
##apah
##ungsi
geupeuduek
##anaf
pengkhianat
hareuta
bukti
jiboh
pidato
keumah
pocut
ibn
intat
selatan
ide
hindu
youtub
cocok
volume
beda
gos
hom
ideh
kuk
kanto
seuk
wak
##ey
##uasa
##let
##laen
##cang
##cong
##anco
##all
kaoy
##aikan
##ulak
##eunong
##andeng
##ampoe
##antan
##eutot
##unami
##ilitas
geuteupeu
##amaah
bruek
perp
bert
pham
peunula
panik
##egeuh
meudukong
##uroet
beukah
jeumpa
hamid
khusus
konser
ay
gat
gel
hu
hajat
leu
lale
seuh
sungg
wah
##tu
##kawi
##reb
##xi
##oei
##aru
kawoe
##aian
hand
##ampa
uleu
bansi
aseng
##khem
meulakee
peurt
meukeumang
##inggu
patah
##ambong
udeueng
##entasi
katrok
##oyama
standar
kec
syarkawi
meusidroe
kureung
keluarga
organ
singke
dakwah
##isme
##kwkw
pabrek
mukhlih
youtube
bai
beum
dapu
hur
hinan
iku
mi
manaf
pek
rat
##pak
##neuh
##dj
##euch
##sir
##ukung
lagei
##juek
uroenyoe
syam
geubuka
##oduk
peurintah
peurte
keuneubah
saleum
##euda
seuleusoe
timoh
tamah
geukeumeung
tapubuet
ramee
pemilu
beurans
##alaman
desa
uni
tabaca
##ember
rizal
lapisan
kuril
##likasi
suboh
eunt
useuha
sosi
ampon
tikoh
##ustaka
swt
aoyama
bas
cong
dri
iman
kum
lun
mit
ren
sop
teh
##tik
##macam
##jud
##fat
##ator
##art
jijok
##ulok
##peun
##awat
##apura
##eutan
inf
geuteurimong
##ingga
##asia
##eurunoe
geupimpin
##angkot
##haf
perk
ade
##umpah
##eudi
geumeul
aplikasi
bukoen
##entah
tokoh
##acammacam
dengki
tangui
pupok
geuseumurat
tukang
syeki
detektif
radio
tantra
tsunami
mongol
sosah
cangguek
alhamdulillah
gosho
perpustaka
beuransah
perpustakaan
bur
beb
conan
du
he
ijak
kegi
leung
pub
pint
pimp
ten
tong
##uc
##sin
##bi
##buet
##ray
##eurija
keuieng
##alee
##alia
teupat
anak
##eump
##ubiet
inform
##eubok
##ela
ulang
syiah
pulang
pake
pakoen
kreuh
pateh
haram
jimita
sipot
djawa
tuleueng
teubai
##ungkenkan
rusli
kutaraja
sidara
eumpeuen
upah
lontuan
##ederhana
tungkat
mamplam
kegiatan
ed
gantoe
hawa
jeuh
jer
mag
puwoe
res
sat
tany
zain
##plueng
##phon
##groe
##wak
##amana
jing
peudong
##sing
seudeh
##ampoh
nyoekeuh
##agee
anco
##und
prof
##usaha
abi
##ebat
rump
meututoe
meuhar
karya
matemat
jaringan
batak
jimeuen
tapileh
kale
game
droeneuhnyan
leupie
teunuleh
sangsang
laksamana
komputasi
seutia
angkatan
makmur
teukeujot
guni
ranup
format
administrasijih
asa
bk
bangk
cek
gug
nep
of
oek
rin
ratu
turi
##oih
##kubat
##amoe
##ini
##ajak
##urit
hanafi
##isasi
lonjak
city
indoen
jituri
perle
kre
##uhu
harah
buka
peutheun
sipai
tajam
terj
geupeutheun
hukum
syahkubat
pukat
cucoe
droneuh
susah
sumber
doenya
informasi
fungsi
gas
hamb
kek
memb
macammacam
nilai
sot
tup
ueh
ukh
versi
waki
##bek
##jal
##jana
##jabat
##akoe
##abo
##aloen
sifeuet
##ulussalam
##itek
##itif
hanco
##adoh
leb
##awai
sabohsaboh
##eumi
##anya
geutinggai
##eubab
aneukaneuk
neud
geupreh
geupuwoe
##ayaan
##eupah
jipeur
arti
umong
keubah
seuni
beulanja
terk
sapo
rupajih
shalat
warong
wareuna
saho
subulussalam
hindia
lhokseumawe
tiktok
khusos
digit
kalimantan
fitur
tugaih
peurtama
indoenesia
cet
daw
dana
fr
gal
gaya
gagah
ijo
kuh
laloe
rad
rhah
##lin
##gom
##tar
##kara
##yub
##rat
##euga
##ahah
aci
##ule
##its
##sik
urutan
##uki
##apai
##antong
##uson
##ileng
##ubu
lagoena
awe
geuthee
geutron
traf
jitim
maksi
keureutah
tamita
geuhei
akhirat
tapeut
keumawe
djroh
step
kulam
maha
meungnyo
kerja
rapai
fadh
sinyak
ceue
cir
dem
dub
grak
jal
ky
mab
minggu
pac
ro
tent
tika
##soe
##shu
##dan
##ce
##car
nyata
meuubah
jin
##alitas
peujuang
layan
thee
urg
##utoh
##antik
##agama
##undang
##ibusi
geupeuna
geuteubiet
droeteuh
bank
##eurah
geupubloe
jiteumee
kambo
peuekeuh
pengk
pengguna
meuhai
meuheut
##umpang
timang
sigala
peunoh
jarak
uma
leumb
##ova
pangeran
akad
akibat
teukeudi
meupadum
meuphom
eungkoet
biasajih
soleutan
hatee
untong
lapuran
kecamatan
bajeung
usman
punoh
jawoe
seni
eumpang
insya
john
jijaweueb
ierupa
naleueng
naggroe
##apahit
seuhingga
matematika
trafo
kamboja
dal
gisa
jep
nnyang
pok
rai
sas
tay
tingk
wap
##uoh
##pi
##ton
##ker
##hok
##zh
##mah
##ck
##amoeng
##ash
##uleuen
##ajurit
##sisi
##urak
##ureung
produk
##usa
meunuroet
##idin
abang
lhoek
taala
geupeuek
geuplueng
geupiyoh
peureum
haihai
deungen
ubiet
##ungket
seulangke
geukeuneuk
beujeuet
jimat
suum
tip
drop
##lip
parang
taboh
saksi
##anjan
##dehka
pejuang
saud
imeum
menye
dipakek
rahma
papua
rukok
komplek
reuny
meusyeuhu
kolonial
desain
sosial
digital
bus
cm
cak
dab
deuk
deuek
hina
ii
kos
lim
mac
ni
rant
rapat
sd
semb
to
tni
yoeh
##pan
##lis
##wang
##hum
##cat
##aken
##eheh
##eep
sij
##inda
peup
##ulah
##awoe
##ampong
alas
teumuleh
meunjoe
geutamah
##elat
teungoeh
bekle
##eurangkat
jithee
padub
keunira
jipike
seulayang
##eupak
##trang
armada
peulajaran
kaloen
pucok
buya
meubacut
gadoeh
##jaroe
sulet
suleng
turonan
meugantoe
imran
studi
##ijit
majapahit
guha
amanah
internet
jurnal
lawet
desya
mesjid
hijri
khalifah
assalamual
bata
cab
gag
jula
ko
lg
leub
pangk
ped
paih
tangk
van
##loen
##tam
##tis
##hs
##sagai
##dah
##jat
##ngon
##areh
##enyoe
##asikan
##ulai
##andi
##uku
prajurit
##ustr
##ubahan
inov
##anggap
ala
alb
meunatang
##istan
tuwoe
##eulheueh
kabeh
geupr
makl
##oda
seumijit
menjoe
##jioh
ayahwa
harta
geuseuot
pemr
##hamidah
bada
keulai
meugantung
simalam
ujung
beungong
elek
piasan
alami
sagaisagai
jidrop
encoder
pahang
rusa
bidah
##aaaa
jeupun
geupeurunoe
peundapat
peubuet
kalimat
bhaih
reuloh
##eedara
lunak
gugus
stephen
cr
ent
fisi
hot
mee
mid
mor
mangsa
sov
yup
##suk
##don
##resi
##mar
##jet
##faat
##euw
geueh
##enan
##ert
##iny
##iter
##sim
tha
meuneuen
khut
kheuen
gobnjan
##iau
geubagi
peuranc
keuradj
peulisi
kujak
jimeus
ramlah
sikrak
buy
akhee
sakti
##embangan
peusan
##abohan
stat
inter
##ancang
nurhamidah
kedeh
sayid
tande
pineung
labuhan
honshu
sadar
##anjutkan
tibang
sopan
rumpuen
dubai
layanan
jeueb
kantoe
nikah
tum
tag
top
wase
##uha
##pah
##hoen
##bol
##bacut
##yu
##rik
##vasi
##meun
##jroh
##akm
geuw
##ard
kaji
saboeh
##eunajih
urusan
##iman
##ago
ato
pred
##ireng
lago
geuteupeue
##eulee
jakeuet
##esan
##esabe
geupoh
meutuah
##angkadang
peurang
berd
berb
seumike
##ogeuh
##uho
haroh
kalheuh
pugah
jikeuneuk
bujang
must
pasukan
meujan
##ijah
bida
kadangkadang
murah
pasifik
hindon
##ustri
pembel
teknik
meuyup
##www
tawoe
judul
depok
##truktur
likoet
terjem
akadem
raihan
biet
cal
cae
dee
jhon
kp
lueng
meg
om
pimpin
ref
tahe
zak
##uai
##ne
##aot
##io
##sit
##dak
##euat
##ngk
##oeb
##asila
sijarah
teucok
ngieng
##ajar
sabesabe
##eungki
##eute
##opa
##eubi
##orm
abee
baren
baneng
##ebr
taeun
geupakat
dipat
pengh
berg
jipeus
utang
menang
##ambot
harap
bukel
nangroe
jime
sujud
turuki
geupeuturi
peumeur
jiseuot
pukoe
hadiah
lemb
kasta
tahta
seudjarah
mekan
droneh
##areksa
peurumohgeuh
##karu
tengku
komunikasi
rauf
aleuhat
pirak
quot
bansigom
##usahaan
fadhli
pembelajaran
austr
cip
gol
hamba
jun
kand
lut
lip
maja
mnt
pki
sung
suka
ue
weueh
##uz
##peng
##oib
##blah
##rob
##akah
meuw
meuasai
meuagama
jiyue
siam
bakbak
##uman
##ulat
##itong
lamit
##peur
seuuem
##araf
rayeuek
lhan
##eulam
syur
geubeuet
meulint
perubahan
mugreb
salib
jipubuet
seumah
karap
masak
geumpa
bulee
peulabohan
ummat
jimeul
jibantu
udara
sipanyang
bacutbacut
tulo
bagaih
pola
peukayan
rijang
teunaga
tareh
binteh
syahid
bungoh
peungaroh
dikeue
##umbang
hadits
pungoe
peudeueng
geunantoe
punah
puncak
ladoem
memungkenkan
spesimen
korban
hubungan
manyet
ranub
lumpoe
muslimin
ruja
zainal
mabok
inovasi
stephenson
terjemahan
aja
bed
bos
cik
calon
dun
dagang
hain
iri
jumat
leh
laba
lge
mep
pangkat
roeh
reuda
sangg
shah
yus
##pap
##lang
##nat
##out
##hasil
##muda
##angai
##ond
geuatoe
meuulang
##aroe
##arap
jieu
##ulet
##itat
##peut
##utang
##uko
atl
##eumpat
teumanyong
geupeud
geutarek
khas
##obal
barangk
ast
geupinah
jitoh
meuteuntee
meuseun
sidroedroe
berk
masker
panah
aparat
buket
jareueng
##ariat
tipe
tatem
##alisis
##entuk
aktif
dumna
keubeu
posisi
siteungoh
##anjot
baginda
gura
marit
mahmud
pancasila
##ender
dipeugah
plung
meungnyoe
beuklam
bidang
saweub
usaha
teupeuget
geujaweueb
##alisasi
nuraka
musik
pomeurintah
kiamat
##halin
redha
mameh
geupeugoet
helsin
mongolia
ukheue
lebeh
wapheuet
helsinki
beng
bhan
beunt
camp
cac
fi
rom
sue
talak
wo
##pu
##pt
##luek
##dum
##bong
##rib
##va
##visi
##qh
meuka
meuasoe
##areuem
##alkan
teujadi
##roek
##erb
naf
##nyata
##aweub
seus
alasan
geupeusi
geuteumeung
khianat
tren
##asaalah
meunancit
laenlaen
indrap
industri
jiteuka
makalah
meurdeka
perd
peuek
lheuehnyan
seulim
jipeuk
##ost
matee
bate
seuneubok
unik
katreb
bicah
rakanrakan
atejih
teubuka
geunguy
seureng
sapeu
geuritan
ukuran
dipeut
meuceuhu
meujanjan
keren
meusifeuet
semangat
sahbat
kirem
idi
fatlon
mete
hasil
dimiy
meuyub
hidup
smp
dokum
bentuk
titah
efisi
##jahtra
ibnu
jhony
indrapuri
bun
daj
eee
hati
ikh
jajah
jeuem
luka
loem
lumb
may
ribee
seng
sangka
toeh
tungg
vari
yuem
##ewa
##nanggroe
##bagah
##ris
##aks
##akeuh
##aksa
##ngaroh
##amee
##ameun
##abong
keutur
keuada
##alim
##asana
siur
sisat
ngat
##oka
##sip
##uru
##urunan
##ihat
##awong
##uto
##iksi
##ampon
##eungeuk
atoran
anjinoe
alkah
geuteum
tuh
##ore
aba
##riwang
##ebe
jiteupeue
iseulam
dijak
meuseubab
perte
##pateh
adab
meuho
##ogen
jipeuget
krek
geumup
geumeuhei
blo
geuhoi
ump
kalheueh
##ley
balah
balek
jikoh
peutunyok
akses
uneun
sipoet
##impah
global
marwah
neukalon
bagahbagah
bitbit
hayeue
damai
milite
revolusi
jurong
##ript
rajek
##mudah
honda
setuju
anggap
sesuai
##ukoep
corona
konservasi
organisasi
pimpinan
rincong
jitimoh
maksiet
peurancih
air
dali
grah
hei
haf
ijoe
je
las
lid
lalat
lidah
nov
oen
reut
sapat
yueb
##preh
##luk
##laku
##oun
##sh
##syah
##mas
##fa
##feut
##akh
##ons
meugreb
##eet
lada
##itik
##uroh
##awasan
##ape
##agam
##agia
##unj
input
##anggok
awakkah
##uwan
##khot
##kuh
##eurang
geupateh
geubaca
meutunang
peureute
pers
adun
salang
geumeur
geumarit
keuduwa
laku
peuneugah
harok
suasana
##eusu
dilikot
teutob
salahuddin
##ukaan
decoder
sipak
blahdeh
##eugam
sakhalin
teuhah
lapangan
jideungoe
rhoh
warna
neubeuet
rustam
saweue
tema
##teri
##ograman
yahudi
pikiran
sambinoe
##tronik
tanduk
munaf
gareh
lahee
konten
kapiten
kapitalis
eunteuk
drien
rencana
leungkap
pintoe
tanyoeng
assalamualaikum
elektronik
soviet
peumeurentah
##oibeutoi
keuadaan
alkahar
bra
dn
deur
ee
eu
eur
gah
ita
kim
lin
lanja
moh
oc
raga
seg
tol
tingg
tupeue
vek
vok
##ein
##leubeh
##gi
##goh
##tim
##kam
##sp
##sab
##yam
##ril
##van
##val
##mer
##jik
nye
##amatan
##ehatan
keuk
##asat
##asik
##asti
##eksa
##inyan
##ais
##aisy
##ihah
thoe
thail
##euny
##eunang
##euneh
##awati
##ukom
##api
##imah
##ilat
##ilek
##eumb
intan
alg
alan
khan
##oba
##obar
##asaan
lheueng
##riek
kaba
geupakek
konf
meureubot
##edah
isya
diaceh
brm
rakaat
sababnyan
krn
krist
geume
geumoe
meukeunong
kapegah
lakab
peuneu
harapan
geulawan
jimeuhei
tapike
sikin
jibeurangkat
jikab
turki
tabloe
simbol
##awanan
teupike
silek
teunanyong
mardeka
##seulamat
lapang
ibadah
distr
plat
keras
beunagi
teureut
peudagang
punca
iheuehnyan
dukung
nasehat
bgsa
deli
geujaga
bayeue
bungkoh
kebon
##eae
neumat
seungap
kontrol
transform
tungku
liar
rangkang
kafe
undangundang
quraisy
pacok
kompleks
dabeueh
pemrograman
akademik
australia
astana
siuroeuroe
ai
bangga
ceumeu
dawa
dump
ex
gulee
hp
jasa
lanc
lanjutkan
meh
mupat
masaalah
nonton
pd
soh
sehat
suhu
vir
wud
yu
yub
##een
##gai
##hak
##iang
##bur
##yg
##aturan
nyawong
meupat
meuwoe
##abu
keupeue
bakar
##erame
lay
##ait
##itor
lamiet
sabang
theun
##awak
##imitif
atr
##usoe
lagenyan
##ington
##eubeuet
##euboet
##elan
##raf
##oli
##asiet
neuwoe
asei
taf
geuprang
malah
malaya
meulaot
meurana
habib
habitat
perusahaan
kaye
saleh
saleng
salman
putra
##eupa
timur
aron
menan
takot
##jip
geulanggang
jibeuet
##entitas
jamen
banten
##ernova
djeut
djinoe
tabri
samat
geupeutamong
hategeuh
peumuda
imarah
ibadat
##euntang
supernova
tanggong
neupubuet
kluet
miyueb
nasib
seudangkan
hayeu
new
dinanggroe
korup
korea
jigisa
kalimah
miseuejih
antek
oseuha
tugas
seulaweuet
komunitas
jeuleupak
lumo
judo
##zahir
pageue
nikobar
peureudlee
ideologi
resmi
thailand
bupat
ceul
dong
euh
ij
mie
mult
out
pee
rib
vis
yoe
##ew
##uari
##nn
##nel
##gad
##ox
##teng
##ky
##kul
##wal
##waj
##bu
##rab
##ver
##cue
##eujak
##ako
##akk
geuato
meugrak
##aria
jioeh
teuj
##eks
##roen
##inal
##ulkan
##adan
##adab
##awok
##apo
##eungui
##age
##eutoe
##uduk
##irik
geupeumudah
##isti
##euba
awaknyoe
lomba
nanggroenanggroe
lhe
uluwa
##eulih
syaf
##eureub
jitheun
jiteupeu
jitren
makan
bahgia
brk
peuraho
peurkara
adam
paken
paksa
##jaan
pengalaman
pengembangan
bers
phang
jipreh
##eudoa
masen
tanaman
timp
kapu
blet
arsit
lake
paloh
peuluwah
patot
bukit
ramerame
phonphon
balang
buah
##grob
angget
##tani
##esis
tulesan
peumimpin
sapue
saf
geurancang
careng
sjariat
kulah
jeund
baje
tuboeh
meujampu
itek
spek
lempap
geupeuluwah
##odean
leuhoe
##aikot
angkasah
kesehatan
keupeuet
keturunan
##hhhh
musibah
geuseumayang
##aidah
desember
rajaraja
seulawah
teudeungoe
huruf
refer
seusabe
efisien
vektor
platform
transformer
arsitektur
can
cov
fran
fasil
gong
gaji
gigoe
ilah
jah
kus
lup
lila
mol
mari
pangg
pka
pos
pli
rabi
sederhana
tumpok
tawanan
##pet
##lh
##long
##tasi
##wi
##wandi
##her
##dh
##bon
##rasi
##ate
##att
##atat
geuchik
##are
##abilitas
jieb
jiwa
##umu
##aiman
##ulasi
najih
##ayon
##ajo
lamuri
uroeuroe
##aweuep
seuoet
##ampoeng
##apeue
##eungk
##imb
##imbak
aneh
ancam
pre
##usak
##uduek
alfat
##iry
meunikah
geutanyo
##idekan
##juet
##epatan
##eulileng
neuyue
##kha
##kusi
ruman
rumoeh
geupileh
##angkee
meulue
konsi
meureutoh
dijih
brp
meuse
ekboh
bangunan
meuhi
jipot
krak
binasa
##osen
manfaat
peunjajah
beutoibeutoi
soekar
bukon
dile
peuteuk
taturi
##grop
wilajah
dumnan
keubiet
ihsan
teubit
ditii
##eujit
##efox
silu
silaen
jiseum
istikh
teunang
intel
ikat
motif
tanggoh
ilmee
wajib
mengh
tunt
metee
senjata
geupeusapat
repres
##izh
riwang
lawe
konsep
syehki
##untoh
irama
seungab
benteng
tradisional
taim
##eutahuan
efek
##jalanan
meuhubong
firefox
permukaan
wisata
kreatif
##abowo
tayue
pangkai
mideuen
mustahe
mekanisme
dunia
atlantik
bupati
istikharah
bom
bis
ceh
cangk
gem
gasin
jl
lo
lungk
noe
nar
net
pay
pep
pinah
rac
ruh
seueng
sji
sari
tet
tind
##ujoe
##pir
##ler
##lop
##loeh
##tob
##ko
##kin
##sur
##de
##bir
##yn
##za
##meuen
##fk
##akata
##aklok
##amet
##ono
keukuasa
nyangna
##asta
kada
sifeut
##erdeka
peuc
laos
layang
##itam
##ajang
##oku
##peuta
uruek
##ukat
##apor
##agan
analisis
##uno
primitif
prabowo
##ile
##euman
##ubit
alee
##anyot
teumeung
geutaguen
kham
##lahe
##ord
##oritas
rayat
ulikot
bani
bans
##asif
bandet
neur
taat
taulan
geupuga
jitinggai
kond
brs
brb
kamuih
ubi
meusajan
keureu
mugh
keuneulheueh
meuhadap
jipeuh
kreh
kreueh
sampo
komb
uts
uteun
utosan
tamb
bulat
arran
peunuleh
##uhada
menc
soesoe
tapoh
suara
baluem
tivi
peutugeh
meubah
meubantu
gadeh
dewan
tgku
sulaiman
katem
sibuleuen
djid
museum
biaya
geupeutalo
teuboh
neupeut
elemen
saah
silop
glap
keurajeun
serikat
serial
lampoeh
dipeuget
peunget
peungeutahuan
alatalat
##ansuri
##uliaan
beasajih
filem
naseukah
tutoe
jadah
lambat
tulehsan
almar
irwandi
sambong
seulawet
aziz
cerita
##jahtera
peureudee
sunggoh
handjeuet
##rayek
jerman
jingieng
pengkodean
reunyeuen
gagal
khutubah
peurangui
seulimum
keuturonan
kimia
algorit
output
anggeta
fasilitas
representasi
keukuasaan
aim
bing
beub
bism
cuda
der
foto
gig
hba
idong
kpa
luw
lug
mik
moen
neh
neb
pong
quran
rel
sn
suw
struktur
wawasan
##pp
##poh
##ly
##ger
##tek
##kitab
##hik
##iem
##sara
##sch
##com
##qi
##eupat
##angoh
##atur
##atis
##onyoe
geurakan
jiku
keuyak
keuchik
##asama
kazak
siti
baka
##uma
peuj
lae
##uler
##eta
##etik
hansah
##peud
##imewa
ateuch
inti
##anyol
lagot
teumeunak
##aceae
bekna
##ebab
geupake
geupakoe
jiteumeung
maks
meutj
meutia
meuluwah
meulaju
meuranto
##edia
broh
bangsat
pengamatan
##eudong
kareueng
seulanyan
maser
tima
geukira
geuhar
##tiek
pattani
chan
darw
kupeu
kualitas
geuliny
jimup
kalin
pujoe
sikeuj
jikirem
beurita
tatueng
##grasi
droeneueh
##ental
meubida
meubileueng
park
siploeh
katroh
tajaga
##luengplueng
meuguna
pusu
##embangkan
rakanjih
##atuha
samalang
##indoeng
ditamoeng
saudi
sileuw
tarah
##alahuddin
shalahuddin
wareh
minah
dikee
semen
rusak
cuak
mudi
beliau
genus
kleng
kampong
dukungan
sidro
alahai
geupeusah
peundidekan
eumpung
hasee
sineuk
musim
fitri
johan
eksp
kontribusi
titek
##cuali
tunggara
##truksi
sunggoeh
bangket
galeuen
hijriah
keuradjeun
bergek
nafsu
tuhatuha
lidia
algoritma
aimag
samalanga
aji
bee
cam
ceum
cint
cie
dend
eum
ft
fah
gep
gaih
jos
jeuep
jampok
jeungki
lih
land
lib
leus
mue
mont
pai
pgah
publik
pajak
sag
somb
said
##eja
##goe
##th
##hin
##heuen
##sep
##barang
##ye
##ry
##vitas
##zair
##mal
##jek
##euah
##ngat
geunt
##arm
jiw
keuj
keuaceh
##alen
##eni
##enang
##entif
kacok
sirip
teupeugah
ngeun
##ekat
##ery
##erus
##inos
##indong
##iti
hanaj
##engkan
##ajek
##adhan
##utuhan
##iki
##andong
anim
thatthat
##openg
ino
##anggasoe
##iru
teuman
teumieng
##ungi
geutah
geuteumee
geutupeue
##eles
lonk
abah
teunget
banduwa
syuhada
##oengan
geupasoe
makajih
bahaya
meuturi
meutheun
meulang
divisi
brt
meusoe
peran
perang
perma
rakjat
adap
muf
keuno
keunoeng
berjuang
phan
jipup
##euduek
seumeubeuet
amai
geumulai
manah
##tren
geukeurija
peunikah
takbir
peulom
pansan
beutat
beutroh
chi
jimeuk
jimarit
tapajoh
ramadhan
beureukat
tapeul
tapeug
tapeur
keubud
seunurat
lageenyoe
sithon
meudawa
simaken
biru
terb
tulak
solusi
peukawen
##indu
raseumi
maret
##jadah
meusigo
dikeu
sahabat
alias
beunantu
bela
genre
geunaseh
kitabkitab
beasa
tjukoep
##aikat
##aikom
jeumot
tuto
siribee
angkee
fatihah
tund
jambee
keupala
digata
keudeih
upaya
geupeukeumang
singkil
goenyoe
luminos
pilk
##adewa
husen
##empatan
bebas
jeuhet
##wakili
##hstan
maklumat
##meunan
berbasis
meulintee
meuulangulang
kristen
wudluek
timphan
rabiul
##pirasi
##tober
arraniry
bismillah
kazakhstan
keuacehan
luminositas
aq
bo
bib
bangg
bie
broek
cang
cop
cali
dah
dll
deupa
dfk
fa
fik
gd
gak
gul
gil
hang
jroeh
kue
lirik
mn
mob
nah
ori
pha
panyot
ron
sangk
saran
tot
toem
taguen
weue
web
waf
##nia
##gak
##osa
##to
##tal
##hoh
##swww
##bul
##ras
##zi
##meus
##jut
##jamaah
##anat
##angun
##atah
geuubah
##arata
##abase
##ens
##asui
##euhat
kacang
##roet
##inasi
peusa
##ulek
##itah
##itar
##ete
##oma
tham
##andia
##ukubu
##eungeh
##ante
##eutap
prut
prib
##use
##udoh
##anggab
alhaf
teumas
geutham
geutunyok
##ingoh
##euboh
nibaknyan
##upateh
##acara
asan
syeedara
tau
geubi
maladewa
jiteurimong
makkah
meulawan
meuribee
meurdehka
bro
brasil
meusom
persia
adu
keunam
salar
putik
jipo
jipeuek
jipuwoe
seumeujit
karang
geumeus
tanoeh
tanjong
leubehleubeh
timbak
tameh
buloh
sigli
sigolom
rayekrayek
peunajoeh
peunutoh
paleuet
penj
penteng
patpat
patoet
apangoh
kupeugah
bathat
jimeur
geusok
beureutoh
##aihi
seuneul
jame
jameuen
meuploh
keumamah
keumala
##eugoe
bijak
meuduroe
samad
samlak
lheuhnyan
##seuleusoe
##ingkatan
seureung
seuramoe
geurasa
peusapat
teunak
mahk
seri
dipeur
sunnah
peungeuh
beukaih
seubeutoi
juara
majeulih
kureng
kuto
neutem
teurasa
geupeulara
seutjara
##fornia
meumacam
pendapat
droneueh
geugantoe
hamzah
ketua
peneliti
pemerintahan
##syiah
bhasa
beuhe
hikmah
##ujud
##allahu
lumpo
kriet
geupeuhase
database
wabup
geusie
kecepatan
editor
hambo
cetak
free
dalong
pokok
tingkah
sembah
tangkulok
lagoina
zakaria
lembaga
hainyan
geumeurat
konflik
tafsir
visual
##istiwa
soekarno
tindakan
mughayat
almarhum
maksud
sombong
##entifikasi
permainan
california
alhafizh
ara
bon
den
dur
eek
evolusi
gra
goet
ganggang
gule
hoi
hip
hebat
idang
ipeugah
iran
jr
jue
kg
kot
lan
langg
ling
lusa
nong
nama
ob
pui
rp
roe
ruw
ranc
reuoh
song
sed
saka
sma
tin
ungk
was
wash
wasiet
yun
##lem
##lap
##nis
##kut
##kel
##keur
##kawen
##ieb
##sc
##bint
##yum
##rama
##zina
##je
##anoe
##atoh
##atja
##amar
meuak
##arkan
##abel
jigrak
keusy
kaca
siet
sijuek
teukhem
##eria
##umi
peujabat
##aim
##ulama
##ulagu
hanjet
lamt
##urang
##urna
thani
urat
##andan
##emuan
seujak
##apee
##imen
##antah
##antok
ategeuh
prot
##usuek
##ushu
##ibr
##udah
##ubuku
lagulagu
aweueh
geupeutron
geutob
##rafi
##orasi
##ues
neucok
meunanmeunan
taq
tauf
##ester
##eurasi
indentitas
jitakot
bahagia
meulimpah
diyub
kamba
meuseu
##ungka
berhasil
kayue
meuhas
jipajoeh
karim
ohnoe
##eupoh
meukeus
timue
##inggi
tamup
areuti
signi
geukoh
peningkatan
##manoe
jareng
bataih
umi
kalheh
##taf
##hani
bali
beurangkat
teutuleh
##entingan
singet
unsyiah
meupisah
parsi
suku
djit
situek
tabeue
tabib
meudeh
geupeutimang
pasoe
neupeugot
peukaru
teupeh
##hahillah
istilah
rabu
serang
kedroe
bajeng
warga
moder
yohgoh
neuba
kakheun
sawet
beuneung
beunda
ilmu
geuneuk
geuneurasi
belah
kubukubu
oktober
hakim
jeumeuat
fathahillah
geupeurintah
kunci
##ingkatkan
kesempatan
dengon
horeumat
barangbarang
hasj
milik
tangse
##asarkan
fitnah
inspirasi
johor
conto
dhalem
syarif
goep
teori
tenggara
seugohlom
keubitk
teudjadi
bileueng
comwat
sebagoe
santri
mandua
nikmat
geumeukeusud
ceurita
baitur
penggunaan
##zhou
saudaga
yoehnyan
fisika
status
yusuf
teureutib
korupsi
covid
lupie
meutjeuhu
geulinyueng
sileuweue
semenanj
cintra
pilkada
samlakoe
bt
bik
baja
bayang
cud
cue
est
fl
gand
haj
his
jon
kib
len
lis
qad
qing
sr
soet
sast
sungket
tt
tupat
weh
##uasi
##ucut
##lung
##lemen
##goet
##aan
##kr
##het
##ss
##seun
##sus
##sapat
##dam
##yid
##rad
##vis
##jai
##cer
##far
##fikan
##anji
##angxi
##ehi
jikuasa
##alet
##enal
sion
siman
ngonjih
ngonngon
##inya
##umon
##ultan
##engoe
##ajuan
##oman
##adee
leg
lei
##uree
##eukoh
urumoh
##utap
##ampuan
##eutem
##eutoeh
##useuha
##anggot
alaikum
geuteume
##ell
tuwah
banuwa
watei
##eulak
aseuka
##intat
indah
rumah
malengkan
malaikat
jitron
jiteubit
bahas
brl
breuh
peureus
rumohjih
meusan
meusyarakat
pengaturan
##ungkoh
phil
salaf
seumapa
##ogo
krong
geumeup
##inggang
tambo
laknat
teumpatt
beugot
matajih
peulitek
##jiang
##jieb
beutoei
geudrop
hareum
bukubuku
jimeurunoe
tapreh
tapateh
jikeum
beurangk
diluwa
tateumee
donja
keubon
uneuen
meupad
pareksa
##chley
dapeuta
sipeue
tajaweuep
##impen
##stensi
sibeur
musy
biek
taba
meudagang
meudoa
ters
pasar
pasangan
neupeur
##iraan
##brbr
sapai
carekat
teunaman
##endum
ukoran
rhueng
ikah
ikoet
plan
peungeut
minet
paham
cuc
neutham
beuneueng
taduek
lakoegeuh
klo
murit
pasie
tjit
cahit
sireutoh
sidadu
fath
tahap
papeuen
jumot
geugisa
senang
##suai
milek
militer
jirasa
kolab
djipeu
##istik
##load
hahaha
quruan
wahabi
##xiang
ratarata
magh
danau
radja
tentara
geuweuek
meprang
shahabat
talakee
meukaet
europa
dumpeue
dongxiang
##wajeb
bletchley
taimom
racon
khamkha
kondisi
pribadi
seureungga
sembahyang
signifikan
keubitkeubit
comwatch
semenanjung
baikot
cup
ding
dol
datu
fam
fal
gangg
geb
gapu
hok
if
iii
jeu
jel
kanan
lar
lanjot
mm
moe
maw
maguen
nab
pum
pie
pingan
poda
rang
rid
rindu
sum
sumpah
saraf
tabi
ug
woy
##lab
##lheueh
##nda
##kl
##ken
##had
##hima
##ium
##ijak
##dir
##bab
##bandum
##ror
##rou
##mati
##eugara
##akui
##nga
nyn
meueun
meuuk
##abil
nyankeu
##asang
sipat
teueh
ngak
##eki
bakongan
##ino
peuubat
laut
layak
nacit
##ayeb
##itori
##ajari
##ajati
sabi
##peuna
##peuni
nakhon
##awesi
##uket
##ampak
##upu
##upue
##anta
ateueng
anoe
##euma
##udang
alf
alum
alja
alzahir
teumeur
meuna
meuneu
meunuju
geupeujak
geupeutroh
geutren
khair
trumon
##idang
lheh
bareh
ulont
##eulaih
##ach
cita
asrama
syed
##ebut
##khan
indiv
malakat
baho
meulayeue
konv
isti
brun
brangkat
brbek
pulau
peurajek
nannan
meuseum
meuseud
peri
perb
pakoe
pakiban
pakaian
keund
##umpoe
jipakat
jipimpin
jipubloe
##ografi
jipeukaru
kruet
sampeng
geumeuh
meukroh
meukarat
taniet
kapike
ureungureung
peunonton
palest
takh
peuleuh
peulaku
ayahgeuh
##ambo
##amboeng
geuduk
kuy
batang
batat
bateue
ummi
geuseubot
##ove
pemuda
pangulee
tateupeue
##gron
tapeud
james
nyou
jaroejih
pareh
parlemen
sipheuet
djib
sitot
sithoen
teuba
polo
geungieng
surak
teupah
seurta
kawen
teuningkat
teunupeue
deuhjih
laporan
alamat
lampu
##ungkenan
diskusi
kejadian
jidrob
##ramerah
wareunajih
kerucut
sarok
pahala
hadji
tangga
adoejih
beunileueng
rahasia
mewakili
punt
teuleubeh
benih
sepeda
pendukung
seudati
seudeukah
kedok
nejak
grup
##ooo
khusuih
koran
kompak
kepentingan
geupeukawen
##untut
madat
syariah
jipeutheun
haleue
halouh
komunis
potallah
jeurat
ekstr
meuriam
hahahah
##kapai
##ward
geupeubuet
ruang
tpi
lintas
keugob
capok
gabuk
gabuek
sanen
domba
wakil
inframerah
tenak
ciret
kyushu
peupo
fisik
hotee
interaksi
prediksi
deelat
juni
syurga
bede
irig
campli
jipeukeue
lumboi
geuteumanyong
laseuka
tinggal
khanuri
atranyan
malahajati
ceulaka
##ameter
djidjak
bingong
dendayang
eumpeun
##bintang
moderen
cudajih
sastra
##utaputa
kolaborasi
comwatchv
woyla
aljazair
individ
aut
beek
ca
cad
cuw
coba
gro
ipeu
jeub
joek
jeulah
jgn
kk
kb
kit
kasi
kript
kupateh
langk
langka
mumat
myan
mieng
mume
mbong
neng
piy
pip
rob
reugam
sl
sut
sha
ton
tud
tes
tuka
tumb
zameun
##ej
##eit
##uep
##leut
##leumah
##lagee
##nik
##tikan
##tual
##kop
##hit
##hur
##ius
##iara
##song
##sor
##sos
##bas
##ral
##rut
##ros
##zim
##zirah
##me
##malam
##jul
##jun
##cul
##qah
##akoet
##aktif
##oep
##angeuh
##atuddin
geuf
geukh
geuikat
geugrak
meugr
##arti
jie
##alu
##eeta
kac
sijahtra
teutiek
##eka
bako
##erja
##umpat
nap
nad
##etan
lamk
##okon
##okeuh
##okus
##siap
##peuat
uram
nakeu
##ema
##upan
##eungg
atoe
##usus
##ilo
##ilih
alem
away
geupeutrang
geupeuampon
geutueng
geutakot
geutulak
##eubang
##idek
##identifikasi
london
tua
##oreumat
##amaan
##uwasa
##kui
geubayeue
makh
bahle
meuteumeu
meulet
isra
diat
pulitek
ubebe
meusjid
ekp
perjalanan
paket
muall
pho
puta
##eudoeh
amad
kheundak
geumeukat
##urip
keudro
##ositori
##inggong
mencak
penangg
peulheueh
##jijak
##ulauan
champa
harga
api
april
buklet
kuat
geulapor
nangro
jimoe
tape
tapeh
tapih
##eget
puny
sikrek
geusuet
##cip
jibuka
##euse
udah
jiklik
tiji
beurkat
peuturi
peuteuntee
drob
tateupeu
akbar
##ugas
sulawesi
toko
kateuntee
keulimong
##sten
sibeunajih
meugisa
sakri
terp
pantai
pasee
surah
pejabat
peukat
ditiro
peumand
keudroejih
keudroedroe
sapu
langa
##ouck
##yarat
jisah
istimewa
caroeng
gla
peusalah
tarhah
##igma
stok
sjah
##endah
bungsu
shaleh
miskin
wareuga
bintangbintang
seubut
dikheun
juz
ahl
mubah
##astikan
onlin
saweu
neupeuh
kasem
januari
latin
tahy
papma
metode
geucatat
bayeun
universal
geugamba
repositori
keuphon
keter
pandangan
jirat
kepulauan
sayeup
almuk
vidio
bilek
##adjeb
bentara
meuriyam
peusijuek
jipeulaku
anggeeta
kilang
husin
jazirah
muloed
ajayeb
mendukung
bait
nepegah
tupe
rante
cabeueng
maklum
##resif
berdasarkan
golongan
meuwet
spektr
referendum
kombatan
utsman
snouck
montasik
publikasi
copy
baiturrahman
qinghai
simanah
meusaneut
sipeuepeue
alumni
irigasi
online
bap
bes
best
bangke
cin
col
calang
dapo
eng
fase
fanat
gut
heut
iahe
jeb
kod
kumbang
leuek
lst
lues
mir
muw
mic
masif
nom
nid
nor
pn
reubot
sump
sunoe
tamp
tir
vi
wi
weuh
wadjeb
##eong
##ega
##uatan
##port
##len
##nes
##geud
##ts
##tin
##tib
##hoem
##saban
##dur
##bal
##ber
##bil
##rom
##vil
##mu
##my
##mm
##mak
##meuh
##jur
##cur
##qa
##anah
##anun
##amakm
##onyo
geuanggap
meueh
##aris
##arch
##abah
##abuhan
##aleuek
##alahan
kau
sia
teuot
peuta
nawah
##ayam
##ayek
hancoe
##okrasi
##sigo
sabri
leon
##urn
##urunoe
##eunah
##eman
##aphai
##eungong
##imat
##anteu
pres
pros
##ilaku
##eumeun
insan
alt
alai
alma
##anyi
geupeuingat
geutiek
abed
##olik
ulim
lageelagee
mantan
taeu
indo
geupub
geupandang
geuboeh
geubalek
meunye
jitiek
jitarek
makeuh
bahthat
meutaga
##angkap
meulangkah
meurakan
dij
brit
##odoh
peurd
peurunoe
meususon
bangs
keuneu
putoeh
##umpoi
seumoga
aminah
##ogle
##ogakk
jipeuduek
sampoh
geumeurunoe
kompeuni
meukeuneuk
tanah
timoeh
tamu
areuta
artik
sigogo
peuneug
paleusu
##tion
mati
takoh
##jipeu
cham
kueuh
kuny
batja
geulumpang
tapup
ulamaulama
kalam
geusayang
merah
jikira
jikeubah
beurani
peuteubiet
tatupeue
angka
unit
wilayahjih
keumuliaan
sukamakm
keulaji
keulileng
djim
paul
bij
meugabong
beulatang
bireum
##anjo
geupeutubiet
kapaikapai
polisi
sure
suroh
gethat
peasan
mupet
##indahan
babul
dituri
##arankan
##araneugara
teupue
riayat
##oyang
geuril
geureub
glang
gleueng
peusampoe
tarasa
marco
budha
sejahtera
jeunamee
enigma
shogakk
##search
meujalan
kerajaan
yohnyan
meusipr
dikah
item
saham
mubloe
hadih
hadir
kelam
##aleqh
peudoeng
peudana
peudada
ilmuwan
selanjut
rahsia
bubar
bubong
bubena
tjukop
##iii
fadloen
angkat
sidum
geujaweub
namiet
hamdan
peundidikan
bacaan
damee
horror
lambong
##ustus
grob
grove
iskandarmuda
beudee
##karya
music
fitrah
syehky
djipeugah
diraja
jeureuman
emirat
jeulaih
tawar
miseujih
kopi
santon
meulaenlaen
geupeuphon
neulakee
otom
gereja
##perimen
konteks
ieropa
logat
teluk
##osil
neugaraneugara
hrefhttpswww
perkiraan
haramjadah
##ederhanaan
satp
terkenal
raden
##carong
leumbaga
hijriyah
predator
penghianat
lipeh
syuruga
dimiyub
dokumen
munafik
distrik
ceumeucue
pliek
alfathani
tambahan
animasi
keubudayaan
grafik
taufik
meukeusut
teumpatteumpat
palestina
individu
cuwak
muallem
mencakup
##cipta
tahyeuet
lstm
sukamakmur
shogakkukan
asi
bot
bor
bha
cagee
cuntoh
dg
dama
drah
debat
fosil
ga
gasa
hie
ig
ikan
jay
jra
jamaah
kn
kin
king
kanda
keg
kip
kembang
kandang
ler
leng
lob
lusi
lini
mesi
nat
non
nen
oe
pam
pura
pajoeh
qanun
rok
rud
resi
raf
riyoh
rila
reutoh
riau
rendah
sri
str
sou
td
teb
ung
use
wet
wib
##ex
##uat
##po
##piyoh
##leuh
##lad
##larat
##geu
##gnan
##gampong
##tuan
##teran
##teungoh
##kak
##ket
##we
##hot
##hari
##ssearch
##yot
##yuk
##ree
##rogen
##ve
##vo
##mon
##mut
##mond
##mawati
##juk
##con
##fer
##akuan
##oes
##amanan
geuangkee
geuanggab
meuap
meuku
meuikot
meuato
##abar
##abab
##aburi
jipateh
nyangkeuh
##enak
##enyo
kaum
siumu
sikhan
teulah
##roeng
##erang
##inh
##inesia
peuna
peukeuh
peujeuet
peuduek
##aye
##ayet
##ayeuk
##itra
##iteran
##etak
##engk
##adar
##ikoet
##andji
##andori
##ukeh
seusuai
##apang
##imbang
##antang
##antren
##agian
##aganda
##agangan
atom
##unnah
##unjong
pranc
##usoh
##anggong
alen
jihad
teume
awk
meuneukat
geupeum
geupeuguna
geupeuutang
geutop
khal
##eph
##epat
raymond
awakmuda
ulua
banat
asy
asj
asap
asahan
tauh
##khusus
##eureul
geupeh
geupup
geubalah
geubatja
jituoh
makjun
meutuka
meulagu
meurat
meureud
disip
brd
pulom
peurangkat
meusu
meusok
meuseuk
ekosi
padup
keurapee
muh
mualim
pengg
berp
berkarya
kayak
phet
karam
kareng
karangan
ohnan
amati
masy
masam
masanyan
masehi
##ogan
kahabeh
geumumat
meukah
meukeumat
tameu
tamse
blok
blog
arm
maen
beuj
beuji
haruih
hareutoe
apai
batu
batas
jimeut
jimeukat
tapuwoe
##egal
geusambot
udeep
tiek
ticem
drou
tatanyong
angga
akti
seunjata
seunagan
##tanian
meubasa
meubaca
meubeda
teukeubi
dec
singapura
nekjih
nektu
meuputa
parui
daulat
katuha
katakata
tajok
##impon
turk
biadab
pust
saman
ujoeng
geupeutoe
neupeus
surot
##eujad
##eujanji
##putoh
menyerah
mediteran
rabbi
disinoe
syahadat
bumo
##euntak
##query
kursi
kuruan
spanyol
##umbuhan
subra
portug
belo
tadeungoe
amiruddin
kenong
genetik
geunap
geunireng
meja
miyub
memori
file
tjut
tjara
tjhik
google
delima
fatmawati
dosa
amplop
peugoet
peugleh
jumad
meksik
rukuk
troeh
##sual
dengo
##ultssearch
kedro
dinas
dinasti
skala
digob
##izer
pupo
malikul
inseueh
##ripsi
fakta
dhiet
sayed
madinah
swasta
sambot
penyaket
penyanyi
himne
jeureuneh
comres
##kwk
lumpur
taiwan
hijrah
##adaptasi
##bangai
kagadoh
geupeupastikan
pertumbuhan
##landia
gerakan
mumacam
pesan
tibet
siseun
siswa
rekaman
geupeuhanco
khalipah
permata
hrefhttpwww
geumeukawen
jangkauan
lubang
lubeh
seukal
kawoem
abiya
grakkan
jalur
sasaran
reunyeun
kosong
rantau
alauddin
keuradjeuen
calueng
beuntuk
dajeue
geumuprang
habibah
jeundran
tuntut
suwono
channel
ruweueng
keusyiek
meunanmeunankeuh
hasjmy
sibeuranggasoe
sipatu
ulontuan
brunei
meuseumangat
myanmar
penanggalan
artikel
lusignan
makjunen
ekosistem
meksiko
##ultssearchquery
comresultssearchquery
ain
ari
beg
bangka
bodoh
cy
con
cand
curang
ded
duli
ejaan
gon
gans
her
iek
iaju
jus
janggot
kt
kob
lul
lit
lil
lind
mk
mei
murip
nel
oeh
pk
paw
pari
pesi
pekan
rut
rub
ris
suri
tep
tampong
tusoe
wac
wayang
yng
yor
zul
##eon
##lar
##lep
##lasi
##nologi
##njata
##gunong
##gayam
##thee
##ke
##weueh
##bel
##yet
##janj
##ct
##fo
##fit
##ftar
##qat
##euc
##akab
##akeuen
##ngeut
##atar
##atka
nyum
##amati
geueu
geuikot
geuingat
geurija
meuase
meujuang
meuubat
meumada
##abai
##aboeh
##abida
jikh
jile
jigrob
keuput
keuaneuk
keuindahan
##aleng
##alel
##enaran
##asal
##asing
##asangka
ngeut
ngoun
##ekawan
##ument
##ulis
naa
##itot
##itasi
hanif
##engl
##engo
##ajam
##ajaya
##oms
##sie
##adani
lep
##urus
thaat
##utusan
##ikee
##andeh
##andian
##ampta
##imeum
##agaman
ati
atjara
ann
anuk
anti
##uni
##unoh
pri
##iba
##udo
##uboeng
##anggaran
alk
aleue
alman
alaihi
##anye
##anyoeng
jihnyan
jihei
meunonton
##ungkh
geupeusan
geupeucaya
##isyah
geutot
geutimbak
khat
khen
khem
##eubri
##obr
##obat
##idi
tuj
tuoh
awaknya
lheue
ulekawan
banja
bandeng
citlom
aset
astr
gamponggampong
taek
##esh
##kueh
##eureuta
jitajo
bahia
bahpi
meulangg
meulayang
meureunoe
##edekan
diwan
dianggap
brnyan
bryg
peurlee
kame
mantongna
meusambong
bangon
bangun
bangsab
adee
agustus
penguasa
berani
kayu
jipok
jiprang
jipho
jipareksa
##eudia
karja
jipeug
jipeudong
geumeudoa
komandan
meukleh
meukayet
tamoeng
beujeut
beujit
matgayam
##ambe
umum
jimeuh
kaleh
kalen
pueh
pucak
geuseutot
geususon
geusarankan
##cial
jibloe
dilua
peuteubit
##entar
##ugaih
meubentuk
uleejih
dewi
singgah
##chi
keumeun
##ativitas
sipil
tajik
ihok
keulola
##eugang
##eugoh
sibuju
musa
keurajaankeur
meugoe
meugang
geubrie
pantan
samasama
polinesia
sinankeuh
teuhoi
mupakat
babussalam
##brk
##brs
##brm
##puter
teupaksa
geureubot
jisuet
peusawat
mark
unta
budi
mahadi
iboh
ibuk
jeunaweueb
kead
syahir
shall
sukeesuk
diplom
beukai
sarjana
minas
meusik
seubagai
majalah
seupanyo
adoegeuh
kakalon
teureubang
##ancoe
selamat
kiree
becak
##blang
naseb
nasihat
meumungkenkan
##illahi
guy
jeumeulah
luwahjih
makmum
ampel
##argaan
bungkuk
hayati
kemajuan
kemampuan
org
kedah
jirhom
kompeni
reaksi
peurumohjih
peuhareuem
riwajat
keputusan
petinggi
keutuha
gunung
madura
##aido
haloh
tariqat
teorit
##low
syekh
jicoh
garuda
##ederal
meupeungaroh
rahmatullah
neulayan
gerais
pegasing
kilo
sinyal
assalamu
mutiara
bertopeng
ayon
syams
euntat
tehnologi
leungka
jingui
profesi
kreativitas
neudeungo
khusosjih
dawah
demokrasi
jepang
peureumadani
##eheheheh
geuprunoe
morcom
peusaneut
##rikin
kpk
kpd
cacat
##ribi
tunggee
vokal
peuneujeuet
viral
teujeumah
jln
loop
lungkiek
beubagah
keuyakinan
kalinyoe
joseph
lonkeumeung
wafeuet
teumasok
seuneulheuh
objek
rancana
washington
taqwa
kiblat
musyrikin
maghribi
gangguan
##ijakan
istiq
kedokteran
israel
peumandangan
nider
kunyet
geurilya
satpam
kinerja
tdk
tauhid
anggauta
pustaka
mediterania
gansu
bangsabangsa
keurajaankeurajaan
sukeesukee
teoritis
aurat
akui
bok
bob
buh
beuek
bingk
basah
bosan
cag
ciri
day
dosen
er
feed
fansuri
federal
geng
gor
hong
hap
hil
hue
hui
halaman
hape
iakoe
jas
jul
jant
jeud
julok
kd
kend
klik
krip
klip
leun
lop
lupa
luho
ms
mos
muwoe
munt
nit
olah
pond
ragoe
reud
rangka
sud
sch
vega
zina
##uar
##ugah
##ujoh
##pang
##publoe
##les
##ner
##najih
##nati
##tid
##keunoe
##kaido
##wet
##sg
##do
##djid
##bot
##rong
##ret
##rot
##rep
##reuek
##zar
##jas
##cin
##euon
##ancam
##akwah
##ngui
##atoran
##ahoe
##onyan
geukuasa
geuapai
geuidentifikasi
meuatoe
##arak
##arik
jimanoe
keuc
keucuali
##aso
##euhak
##euham
siasia
sipeur
teugah
teujal
ngom
##ekh
baku
bakong
##erd
##erat
##ins
##inar
##inet
##umba
peujak
peutron
peutroh
##ulu
##ulam
nayn
##itongan
##ett
##etoi
hanek
hanyot
##oteuh
##ajoe
sabon
sabda
les
##urong
uro
##awal
##ikul
##ikiran
##emar
##ukoem
##ampilan
##apeh
##apache
##eunguy
##imak
##anti
##anteue
##agat
atot
aturan
anj
anuek
##eutek
##eutok
##unah
prom
prok
prunoe
printah
##usu
##eumana
##uboh
ineng
##anggu
alga
jihue
meunt
meunarek
geupeujok
##jaket
geuter
geutabai
khe
khandori
##lahra
trimong
##idupan
lonp
##rauf
##oro
##olf
##olan
##olasi
lhom
banbandum
##uegah
neuj
meunyeurah
jiteume
jitunyok
jituho
bahya
bahkeuh
meutareh
meutabu
meularat
meurampok
##edur
diet
disi
peurabe
kameu
kamera
uboe
meusatu
propaganda
muhar
keuneng
agen
penget
pengangg
bereeh
jipeh
jiparoh
seumaken
karet
masuk
jipeurap
sampee
geumeun
geumanoe
komen
meukuta
tanj
mannyang
tameuk
tameut
sige
maa
peunjaket
palsu
menurot
meningkatkan
pencipta
takira
takeumeung
takaloen
peuleumah
ayahanda
cheh
geudelat
hareukat
haroih
apha
darurat
buetbuet
tapubloe
leumpah
ramli
##egan
geusampoh
geusatoh
udh
jikarat
tijoh
dilon
peutamong
peutaklok
tatak
##enter
##alami
##ugoe
tapeub
seunuet
seuneulheueh
seunseun
meubaro
##jarakat
und
bantah
bantai
baroebar
keumeukoh
##ernatif
##esies
keudehkeunoe
katolik
##stit
sibeuna
djalan
djameun
musang
paak
situju
pusong
meudarah
meudelat
##embung
terang
terimong
termas
samar
geupeuteubit
teubee
polandia
babak
dithee
gure
sapeh
rijal
silagoe
siladum
glee
glie
teuneuka
menyebab
seq
ibi
panca
solutanah
dipeuland
##orte
ploeh
meucah
meujamaah
lakseumana
misteri
sunan
eseulamiah
jilumpat
peungikot
minim
seubalek
italia
seupoet
supaja
##rani
hadjar
kupiah
subsp
neutinggai
kadi
seles
neupimpin
geupeulaku
peunyum
kasep
mempeng
toep
tubohjih
dukon
kuba
raprap
hasanah
lhoksuk
penduduk
latihan
tasek
peuglah
peugawe
peuguna
geucom
geucalitra
dengoe
hameh
kemerdeka
kebenaran
pandrah
nuruddin
pikee
##oooo
programmer
tangieng
##hhh
##unggoh
digampoeng
##asarjana
musium
tapakoe
lethat
##orium
gundah
bhs
##book
jipeuteubiet
praktek
simpan
pinang
pineueng
kajem
jeurman
emang
forum
teudeungo
ipegah
purapura
kontrak
reuleueng
taingat
geupeupasoe
geupeubeudoh
kanada
lintoe
raz
mubagoebagoe
mumang
rektor
##kkkk
##aroih
meuhuboeng
lucu
##hoeb
seukitar
gatok
gelar
wahee
##kwkwkwkw
##ucap
meuharab
neudjak
demak
sassan
limbah
macek
gagasan
khutbah
mntong
hainyoe
geupeudoeng
dajjal
variabel
munafek
distribusi
peudagangpeud
ancaman
konsisten
peuteuklom
jiseumayang
cangkang
darwis
sikeujap
ciecem
tapeurati
tundok
sangkira
samadua
mahkota
geumeuratep
areutijih
gandapura
peureuseh
dolok
hokkaido
jeura
alfansuri
meunapeuat
periode
kuyuen
punyueng
prosedur
alternatif
alaidin
mupetpet
meusipreuek
otomatis
jumadil
wacana
keadilan
profesional
niderland
pondok
baroebaroe
menyebabkan
dipeulandoek
subspesies
lhoksukon
peudagangpeudagang
aka
bawang
bonan
cul
ceuk
cel
ceb
dz
dan
deb
dayang
daleh
dpr
deumi
gi
guet
ged
ganto
gpu
griek
giang
gudang
hut
hud
heb
hoka
iba
jo
juet
jantong
kli
kuwah
lek
leuk
leueh
linggong
mp
mom
meb
mungk
madum
nasi
numb
niaga
ong
okhot
poe
peb
puka
pgh
ramp
roc
ruu
render
sada
scien
tata
tump
tangan
tangke
uet
var
ws
wan
yaman
##eim
##ech
##ten
##keh
##kinan
##hir
##hid
##hui
##hianat
##ix
##ieh
##iar
##iya
##ialis
##salam
##stan
##deuh
##bira
##bilitas
##yata
##rg
##rr
##mo
##ment
##jen
##jub
##jahan
##can
##cuk
##que
##eui
##euoet
##atih
##atasi
##atuan
##atawan
##atihan
##amkan
##ahm
meuf
meuikat
meuwar
##arab
##abang
##abeueng
##abda
jiuet
jiriwang
jiangxi
keujih
keuku
keujeuet
keungon
##asy
##asek
##aseuet
##eetan
sipeu
siaran
siaseuet
ngo
##ekah
##eken
##eral
##erta
##ergi
peunoe
peucaya
##aing
##airi
##uliek
##ayeu
##ayati
##itaih
##etika
##ajal
##omet
##oko
##adh
##adlon
##adoli
##eukaih
urung
##awah
##aweh
##awet
##awot
##awijah
##utu
##utee
##utman
##ikmati
##ematan
##ukui
seueh
seurang
seujana
##ampho
##apun
##apkan
##eungap
ani
##eutak
##eutanyoe
##unat
pro
pra
prob
##usat
##ustaf
##illa
##ibagi
##opsi
##opih
##eumeurang
alon
alur
aliran
aldj
alex
jihar
teumee
awam
geupeuj
geutulong
khalis
##eubeuen
##elola
trom
##idh
##idali
##idabida
tuot
tuho
##orat
droedroe
abe
abbas
##ollah
##olloe
##olitik
lheuch
bansaboh
bandung
bandara
neuw
##ace
asam
uroenyan
syuko
syeetan
bohboh
##uwo
##uweh
##uweue
mante
##ese
##kuat
indep
geuplah
geupujoe
jitupat
jituleh
makara
meuth
meutani
##angket
##angkaba
##angkasoe
##angkasangka
meulikot
konkon
dijok
dialek
dijajah
diameter
bre
##odelan
peurab
kamal
meusar
meusangkot
meuseureub
ekstensi
perele
perhit
pertanian
perjanj
padee
padit
keureul
adegan
mupeu
penglih
berita
meuhoe
jiputa
jipinah
seumeun
seumeul
seulasa
##eupue
masjarakat
teungohteungoh
krit
sampor
geumeut
geumbira
komersi
meukilat
taneuk
indonesi
binh
keudjadian
manaj
timor
##trin
##trep
tameus
tamiang
##lamat
geuklik
lako
geuhukom
peunulang
pala
palang
jijakjak
beuri
beuget
beujroh
ment
pener
pencar
mater
taktok
takdir
beutoy
##ambi
##ambil
apam
apuy
apapun
apolloe
jimeung
tapula
taprang
sikap
geusangka
geusudi
geusambong
##cipt
bace
jibalek
##angani
pemil
pemodelan
bug
bueh
tatamong
##dekatan
akhlak
##ente
##entukan
seund
seunaleuek
meubalek
jamok
teukeubah
badar
badee
meuputaputa
keumiet
keumuen
daftar
eungket
galaksi
siber
blangblang
musuh
biologi
##loeb
meugasui
beuleuen
beuluka
##utanan
panteue
ujoe
coklat
geupeuteuntee
neupeutrang
muploh
tuhanku
baba
dituleh
ditulis
peumerintah
##eujeumah
keudroegeuh
sapha
teupong
houtman
seurikat
silingka
sileupah
tanyoee
geureuda
jisurak
tarian
tardj
mardehka
stasi
stabil
teken
##uroenan
serb
sabansaban
key
keamanan
##enden
jiduk
shik
##seq
meuculek
tubiet
mise
dipr
dipoh
dipubuet
jilop
modal
peungajaran
beukeunong
##mate
##jadjah
minangkaba
neubi
neubloe
juem
majid
saheh
hasejih
mubalek
mubaleqh
##ive
##ivasi
##angkaho
subhan
kutok
bideung
bidari
beunuwa
euncit
keno
keneng
selang
selaen
teupeut
jrohjroh
benci
kampanye
bloepubloe
leuho
dukong
cahaya
##format
##forward
kubang
jokow
##laq
taci
tacalitra
tasy
tasaw
angkasa
deleng
meuenmeuen
geujep
geujeungeuk
tunang
geupeurati
jamboe
geucuba
kesatuan
geugalak
kemungkenan
diboh
peubaroe
lambang
lambaro
lambaroe
dinaih
jigantoe
langsung
langsoeng
##izi
baleen
##intaan
negeri
##edaan
tapaktuan
koleksi
lawang
pilehan
##amiin
geupeukureueng
dhoe
almustaf
praktis
tengoh
meukeusudjih
dakwa
didjak
jijaga
##proyek
labang
poteu
poteuh
##ibatkan
eksperimen
##idae
purwa
lazemjih
hijo
efektif
tungang
jipeuleumah
##fikasikan
rangkayan
pilihan
otonomi
keusalahan
proyekproyek
tantangan
sanib
thoun
sesat
##ows
permintaan
mutia
wisatawan
lubo
tobat
kukalon
gateng
gelembung
organisme
beumeut
perkembangan
geumeulayeue
kekuatan
tentra
dalidali
tingkap
##zhab
lhoekseumawe
peureumoh
dabeuh
geuproses
statistik
meujanji
sungue
sunglab
##uzub
jimeulawan
caci
fiqh
dimiyueb
ikhe
##ogenesis
jelah
deureuham
##valuasi
syafi
bisnis
keureuja
jipeuhase
luwaih
sikeujab
leuser
saidina
meulangsong
mndum
hiperraksasa
##script
meuakhe
famili
tabiat
syedaga
konveksi
##gronje
ekstrem
kbn
geufokus
makhluk
neupeuhareuem
almukar
peurdagangan
linier
resiko
meureudu
masyhur
nelayan
feedforward
sipeureuti
pengangguran
termasok
seqseq
mempengaroh
kemerdekaan
okhotsk
wslm
keukuatan
peunoeh
meuseureuban
perhitungan
perjanjian
penglihatan
pencarian
tardjuman
almustafid
